{
  "version": "1.0",
  "truncation": null,
  "padding": null,
  "added_tokens": [
    {
      "id": 0,
      "content": "[UNK]",
      "single_word": false,
      "lstrip": false,
      "rstrip": false,
      "normalized": false,
      "special": true
    },
    {
      "id": 1,
      "content": "[PAD]",
      "single_word": false,
      "lstrip": false,
      "rstrip": false,
      "normalized": false,
      "special": true
    }
  ],
  "normalizer": null,
  "pre_tokenizer": {
    "type": "Whitespace"
  },
  "post_processor": null,
  "decoder": null,
  "model": {
    "type": "BPE",
    "dropout": null,
    "unk_token": "[UNK]",
    "continuing_subword_prefix": null,
    "end_of_word_suffix": null,
    "fuse_unk": false,
    "byte_fallback": false,
    "ignore_merges": false,
    "vocab": {
      "[UNK]": 0,
      "[PAD]": 1,
      "!": 2,
      "\"": 3,
      "#": 4,
      "$": 5,
      "%": 6,
      "&": 7,
      "'": 8,
      "(": 9,
      ")": 10,
      "*": 11,
      "+": 12,
      ",": 13,
      "-": 14,
      ".": 15,
      "/": 16,
      "0": 17,
      "1": 18,
      "2": 19,
      "3": 20,
      "4": 21,
      "5": 22,
      "6": 23,
      "7": 24,
      "8": 25,
      "9": 26,
      ":": 27,
      ";": 28,
      "<": 29,
      "=": 30,
      ">": 31,
      "?": 32,
      "@": 33,
      "A": 34,
      "B": 35,
      "D": 36,
      "E": 37,
      "G": 38,
      "H": 39,
      "K": 40,
      "L": 41,
      "M": 42,
      "N": 43,
      "O": 44,
      "P": 45,
      "R": 46,
      "S": 47,
      "T": 48,
      "U": 49,
      "W": 50,
      "X": 51,
      "Y": 52,
      "[": 53,
      "\\": 54,
      "]": 55,
      "^": 56,
      "_": 57,
      "`": 58,
      "a": 59,
      "b": 60,
      "c": 61,
      "d": 62,
      "e": 63,
      "f": 64,
      "g": 65,
      "h": 66,
      "i": 67,
      "j": 68,
      "k": 69,
      "l": 70,
      "m": 71,
      "n": 72,
      "o": 73,
      "p": 74,
      "q": 75,
      "r": 76,
      "s": 77,
      "t": 78,
      "u": 79,
      "v": 80,
      "w": 81,
      "x": 82,
      "y": 83,
      "z": 84,
      "{": 85,
      "|": 86,
      "}": 87,
      "~": 88,
      "": 89,
      "": 90,
      "": 91,
      "": 92,
      "": 93,
      "¡": 94,
      "£": 95,
      "¤": 96,
      "¦": 97,
      "§": 98,
      "¨": 99,
      "©": 100,
      "ª": 101,
      "«": 102,
      "¬": 103,
      "­": 104,
      "®": 105,
      "°": 106,
      "±": 107,
      "²": 108,
      "³": 109,
      "´": 110,
      "µ": 111,
      "¶": 112,
      "·": 113,
      "¹": 114,
      "º": 115,
      "»": 116,
      "¼": 117,
      "½": 118,
      "¾": 119,
      "¿": 120,
      "Ä": 121,
      "Ê": 122,
      "Ö": 123,
      "×": 124,
      "Ü": 125,
      "ß": 126,
      "à": 127,
      "á": 128,
      "â": 129,
      "ã": 130,
      "ä": 131,
      "å": 132,
      "æ": 133,
      "ç": 134,
      "è": 135,
      "é": 136,
      "ê": 137,
      "ë": 138,
      "ì": 139,
      "í": 140,
      "î": 141,
      "ï": 142,
      "ñ": 143,
      "ò": 144,
      "ó": 145,
      "ô": 146,
      "õ": 147,
      "ö": 148,
      "÷": 149,
      "ø": 150,
      "ù": 151,
      "ú": 152,
      "û": 153,
      "ü": 154,
      "ý": 155,
      "ÿ": 156,
      "ā": 157,
      "ă": 158,
      "ą": 159,
      "ć": 160,
      "č": 161,
      "ď": 162,
      "đ": 163,
      "ė": 164,
      "ę": 165,
      "ě": 166,
      "ğ": 167,
      "ĥ": 168,
      "İ": 169,
      "ı": 170,
      "ĺ": 171,
      "ľ": 172,
      "ł": 173,
      "ń": 174,
      "ň": 175,
      "ō": 176,
      "ő": 177,
      "œ": 178,
      "ř": 179,
      "ś": 180,
      "ş": 181,
      "š": 182,
      "ť": 183,
      "ū": 184,
      "ů": 185,
      "ű": 186,
      "ų": 187,
      "ź": 188,
      "ż": 189,
      "ž": 190,
      "ƒ": 191,
      "ƪ": 192,
      "ǀ": 193,
      "ǎ": 194,
      "ș": 195,
      "ț": 196,
      "ȟ": 197,
      "ə": 198,
      "ˆ": 199,
      "˙": 200,
      "́": 201,
      "̇": 202,
      "̈": 203,
      "͏": 204,
      "Κ": 205,
      "ά": 206,
      "έ": 207,
      "ή": 208,
      "ί": 209,
      "α": 210,
      "β": 211,
      "γ": 212,
      "δ": 213,
      "ε": 214,
      "η": 215,
      "θ": 216,
      "ι": 217,
      "κ": 218,
      "λ": 219,
      "μ": 220,
      "ν": 221,
      "ο": 222,
      "π": 223,
      "ρ": 224,
      "ς": 225,
      "σ": 226,
      "τ": 227,
      "υ": 228,
      "φ": 229,
      "χ": 230,
      "ψ": 231,
      "ω": 232,
      "ό": 233,
      "ύ": 234,
      "ώ": 235,
      "ϟ": 236,
      "а": 237,
      "б": 238,
      "в": 239,
      "г": 240,
      "д": 241,
      "е": 242,
      "ж": 243,
      "з": 244,
      "и": 245,
      "й": 246,
      "к": 247,
      "л": 248,
      "м": 249,
      "н": 250,
      "о": 251,
      "п": 252,
      "р": 253,
      "с": 254,
      "т": 255,
      "у": 256,
      "ф": 257,
      "х": 258,
      "ц": 259,
      "ч": 260,
      "ш": 261,
      "щ": 262,
      "ы": 263,
      "ь": 264,
      "э": 265,
      "ю": 266,
      "я": 267,
      "ё": 268,
      "і": 269,
      "ї": 270,
      "қ": 271,
      "ա": 272,
      "ե": 273,
      "հ": 274,
      "յ": 275,
      "ն": 276,
      "ր": 277,
      "ב": 278,
      "ה": 279,
      "כ": 280,
      "ר": 281,
      "،": 282,
      "؟": 283,
      "ء": 284,
      "آ": 285,
      "أ": 286,
      "ئ": 287,
      "ا": 288,
      "ب": 289,
      "ة": 290,
      "ت": 291,
      "ث": 292,
      "ج": 293,
      "ح": 294,
      "خ": 295,
      "د": 296,
      "ر": 297,
      "ز": 298,
      "س": 299,
      "ش": 300,
      "ص": 301,
      "ض": 302,
      "ط": 303,
      "ع": 304,
      "ـ": 305,
      "ف": 306,
      "ق": 307,
      "ك": 308,
      "ل": 309,
      "م": 310,
      "ن": 311,
      "ه": 312,
      "و": 313,
      "ى": 314,
      "ي": 315,
      "َ": 316,
      "ُ": 317,
      "٠": 318,
      "١": 319,
      "٢": 320,
      "٣": 321,
      "٤": 322,
      "٥": 323,
      "٦": 324,
      "٧": 325,
      "٨": 326,
      "٩": 327,
      "پ": 328,
      "چ": 329,
      "ک": 330,
      "ی": 331,
      "ߥ": 332,
      "ठ": 333,
      "द": 334,
      "न": 335,
      "प": 336,
      "म": 337,
      "र": 338,
      "ल": 339,
      "ह": 340,
      "ा": 341,
      "ि": 342,
      "ी": 343,
      "े": 344,
      "्": 345,
      "ং": 346,
      "অ": 347,
      "ব": 348,
      "ম": 349,
      "য": 350,
      "ল": 351,
      "স": 352,
      "়": 353,
      "া": 354,
      "ী": 355,
      "ਜ": 356,
      "ਪ": 357,
      "ਬ": 358,
      "ਾ": 359,
      "ੀ": 360,
      "ੰ": 361,
      "ગ": 362,
      "જ": 363,
      "ત": 364,
      "ર": 365,
      "ા": 366,
      "ી": 367,
      "ુ": 368,
      "ଆ": 369,
      "ଓ": 370,
      "ଡ": 371,
      "଼": 372,
      "ି": 373,
      "அ": 374,
      "ட": 375,
      "த": 376,
      "ன": 377,
      "ப": 378,
      "ம": 379,
      "ழ": 380,
      "ி": 381,
      "ு": 382,
      "்": 383,
      "గ": 384,
      "త": 385,
      "ల": 386,
      "ు": 387,
      "ె": 388,
      "ಕ": 389,
      "ಡ": 390,
      "ನ": 391,
      "್": 392,
      "ം": 393,
      "മ": 394,
      "യ": 395,
      "ല": 396,
      "ള": 397,
      "ാ": 398,
      "ං": 399,
      "ක": 400,
      "ණ": 401,
      "ත": 402,
      "ප": 403,
      "භ": 404,
      "ම": 405,
      "ර": 406,
      "ල": 407,
      "ස": 408,
      "හ": 409,
      "ා": 410,
      "ැ": 411,
      "ි": 412,
      "ී": 413,
      "ු": 414,
      "ก": 415,
      "ง": 416,
      "จ": 417,
      "ช": 418,
      "ด": 419,
      "ถ": 420,
      "ท": 421,
      "น": 422,
      "บ": 423,
      "พ": 424,
      "ม": 425,
      "ย": 426,
      "ร": 427,
      "ฤ": 428,
      "ล": 429,
      "ว": 430,
      "ส": 431,
      "ห": 432,
      "อ": 433,
      "ั": 434,
      "า": 435,
      "ำ": 436,
      "ิ": 437,
      "ี": 438,
      "ึ": 439,
      "ื": 440,
      "ุ": 441,
      "เ": 442,
      "แ": 443,
      "ไ": 444,
      "่": 445,
      "้": 446,
      "န": 447,
      "မ": 448,
      "ာ": 449,
      "်": 450,
      "ြ": 451,
      "ა": 452,
      "ბ": 453,
      "ე": 454,
      "ვ": 455,
      "თ": 456,
      "ი": 457,
      "კ": 458,
      "ლ": 459,
      "ო": 460,
      "რ": 461,
      "ს": 462,
      "უ": 463,
      "ქ": 464,
      "ማ": 465,
      "ር": 466,
      "ኛ": 467,
      "አ": 468,
      "ᐧ": 469,
      "ᚼ": 470,
      "ᛒ": 471,
      "ខ": 472,
      "ម": 473,
      "រ": 474,
      "ែ": 475,
      "្": 476,
      "ế": 477,
      "ệ": 478,
      "ứ": 479,
      "ừ": 480,
      "​": 481,
      "‌": 482,
      "‍": 483,
      "‎": 484,
      "‏": 485,
      "‐": 486,
      "‑": 487,
      "–": 488,
      "—": 489,
      "―": 490,
      "‘": 491,
      "’": 492,
      "‚": 493,
      "“": 494,
      "”": 495,
      "„": 496,
      "†": 497,
      "•": 498,
      "…": 499,
      "‪": 500,
      "‫": 501,
      "‬": 502,
      "‭": 503,
      "′": 504,
      "″": 505,
      "‹": 506,
      "›": 507,
      "‼": 508,
      "⁂": 509,
      "⁉": 510,
      "⁠": 511,
      "⁣": 512,
      "⁴": 513,
      "⁹": 514,
      "€": 515,
      "⃣": 516,
      "℅": 517,
      "™": 518,
      "ℹ": 519,
      "⅓": 520,
      "←": 521,
      "↑": 522,
      "→": 523,
      "↓": 524,
      "↔": 525,
      "↟": 526,
      "↺": 527,
      "↻": 528,
      "⇒": 529,
      "⇾": 530,
      "−": 531,
      "∗": 532,
      "∙": 533,
      "√": 534,
      "≈": 535,
      "≋": 536,
      "≠": 537,
      "⊕": 538,
      "⊖": 539,
      "⋅": 540,
      "⎥": 541,
      "⎪": 542,
      "⎮": 543,
      "⏳": 544,
      "①": 545,
      "②": 546,
      "③": 547,
      "─": 548,
      "│": 549,
      "┬": 550,
      "▀": 551,
      "▄": 552,
      "▇": 553,
      "▌": 554,
      "▪": 555,
      "▶": 556,
      "►": 557,
      "◇": 558,
      "●": 559,
      "◦": 560,
      "☀": 561,
      "★": 562,
      "☆": 563,
      "☎": 564,
      "☏": 565,
      "☛": 566,
      "☹": 567,
      "☺": 568,
      "☼": 569,
      "♀": 570,
      "♂": 571,
      "♥": 572,
      "♯": 573,
      "♻": 574,
      "⚙": 575,
      "⚜": 576,
      "⚠": 577,
      "⚡": 578,
      "⛔": 579,
      "⛵": 580,
      "✅": 581,
      "✆": 582,
      "✈": 583,
      "✉": 584,
      "✋": 585,
      "✌": 586,
      "✓": 587,
      "✔": 588,
      "✖": 589,
      "✘": 590,
      "✚": 591,
      "✨": 592,
      "❌": 593,
      "❓": 594,
      "❗": 595,
      "❘": 596,
      "❣": 597,
      "❤": 598,
      "❱": 599,
      "➀": 600,
      "➁": 601,
      "➂": 602,
      "➃": 603,
      "➄": 604,
      "➅": 605,
      "➆": 606,
      "➊": 607,
      "➌": 608,
      "➔": 609,
      "➝": 610,
      "➡": 611,
      "➣": 612,
      "⤓": 613,
      "⬇": 614,
      "⭐": 615,
      "。": 616,
      "》": 617,
      "い": 618,
      "う": 619,
      "お": 620,
      "き": 621,
      "く": 622,
      "げ": 623,
      "ご": 624,
      "し": 625,
      "す": 626,
      "ぞ": 627,
      "た": 628,
      "で": 629,
      "ど": 630,
      "の": 631,
      "は": 632,
      "ま": 633,
      "み": 634,
      "よ": 635,
      "ろ": 636,
      "ん": 637,
      "ク": 638,
      "ゴ": 639,
      "シ": 640,
      "ッ": 641,
      "ツ": 642,
      "ド": 643,
      "ナ": 644,
      "ベ": 645,
      "ル": 646,
      "ㄲ": 647,
      "ㄸ": 648,
      "ㄹ": 649,
      "ㅆ": 650,
      "ㅍ": 651,
      "ㅎ": 652,
      "ㅏ": 653,
      "ㅑ": 654,
      "ㅓ": 655,
      "ㅕ": 656,
      "ㅗ": 657,
      "ㅛ": 658,
      "ㅠ": 659,
      "㡣": 660,
      "䦴": 661,
      "三": 662,
      "上": 663,
      "于": 664,
      "亲": 665,
      "人": 666,
      "从": 667,
      "以": 668,
      "件": 669,
      "伯": 670,
      "候": 671,
      "公": 672,
      "具": 673,
      "养": 674,
      "写": 675,
      "切": 676,
      "务": 677,
      "勇": 678,
      "区": 679,
      "卫": 680,
      "友": 681,
      "发": 682,
      "号": 683,
      "司": 684,
      "周": 685,
      "商": 686,
      "奥": 687,
      "好": 688,
      "室": 689,
      "小": 690,
      "市": 691,
      "年": 692,
      "意": 693,
      "手": 694,
      "敬": 695,
      "新": 696,
      "日": 697,
      "智": 698,
      "月": 699,
      "有": 700,
      "本": 701,
      "机": 702,
      "村": 703,
      "杰": 704,
      "林": 705,
      "植": 706,
      "楼": 707,
      "樂": 708,
      "此": 709,
      "海": 710,
      "源": 711,
      "物": 712,
      "瑠": 713,
      "申": 714,
      "的": 715,
      "礼": 716,
      "祝": 717,
      "秘": 718,
      "美": 719,
      "能": 720,
      "致": 721,
      "花": 722,
      "莲": 723,
      "营": 724,
      "行": 725,
      "裕": 726,
      "語": 727,
      "路": 728,
      "道": 729,
      "问": 730,
      "闵": 731,
      "限": 732,
      "願": 733,
      "가": 734,
      "감": 735,
      "개": 736,
      "거": 737,
      "게": 738,
      "경": 739,
      "고": 740,
      "공": 741,
      "관": 742,
      "구": 743,
      "국": 744,
      "권": 745,
      "귀": 746,
      "그": 747,
      "근": 748,
      "금": 749,
      "급": 750,
      "기": 751,
      "나": 752,
      "났": 753,
      "내": 754,
      "넷": 755,
      "년": 756,
      "는": 757,
      "능": 758,
      "니": 759,
      "님": 760,
      "다": 761,
      "단": 762,
      "달": 763,
      "담": 764,
      "당": 765,
      "대": 766,
      "도": 767,
      "되": 768,
      "된": 769,
      "됩": 770,
      "드": 771,
      "든": 772,
      "들": 773,
      "등": 774,
      "따": 775,
      "때": 776,
      "떠": 777,
      "떤": 778,
      "라": 779,
      "람": 780,
      "랍": 781,
      "러": 782,
      "런": 783,
      "려": 784,
      "로": 785,
      "론": 786,
      "료": 787,
      "률": 788,
      "르": 789,
      "를": 790,
      "리": 791,
      "립": 792,
      "링": 793,
      "만": 794,
      "매": 795,
      "메": 796,
      "며": 797,
      "면": 798,
      "명": 799,
      "모": 800,
      "목": 801,
      "못": 802,
      "무": 803,
      "문": 804,
      "물": 805,
      "므": 806,
      "믿": 807,
      "밀": 808,
      "및": 809,
      "바": 810,
      "밖": 811,
      "받": 812,
      "발": 813,
      "배": 814,
      "법": 815,
      "보": 816,
      "본": 817,
      "부": 818,
      "뷰": 819,
      "비": 820,
      "사": 821,
      "삭": 822,
      "상": 823,
      "생": 824,
      "서": 825,
      "성": 826,
      "소": 827,
      "송": 828,
      "수": 829,
      "스": 830,
      "습": 831,
      "승": 832,
      "시": 833,
      "신": 834,
      "십": 835,
      "아": 836,
      "안": 837,
      "않": 838,
      "알": 839,
      "았": 840,
      "야": 841,
      "어": 842,
      "없": 843,
      "었": 844,
      "에": 845,
      "여": 846,
      "열": 847,
      "였": 848,
      "예": 849,
      "오": 850,
      "외": 851,
      "요": 852,
      "용": 853,
      "우": 854,
      "월": 855,
      "위": 856,
      "유": 857,
      "으": 858,
      "은": 859,
      "을": 860,
      "의": 861,
      "이": 862,
      "인": 863,
      "일": 864,
      "임": 865,
      "입": 866,
      "있": 867,
      "자": 868,
      "작": 869,
      "잘": 870,
      "장": 871,
      "적": 872,
      "전": 873,
      "접": 874,
      "정": 875,
      "제": 876,
      "조": 877,
      "주": 878,
      "즉": 879,
      "지": 880,
      "책": 881,
      "첨": 882,
      "청": 883,
      "체": 884,
      "취": 885,
      "침": 886,
      "컴": 887,
      "켈": 888,
      "크": 889,
      "터": 890,
      "토": 891,
      "통": 892,
      "특": 893,
      "티": 894,
      "파": 895,
      "판": 896,
      "폐": 897,
      "포": 898,
      "퓨": 899,
      "피": 900,
      "하": 901,
      "한": 902,
      "할": 903,
      "함": 904,
      "합": 905,
      "항": 906,
      "해": 907,
      "했": 908,
      "현": 909,
      "협": 910,
      "호": 911,
      "혹": 912,
      "화": 913,
      "회": 914,
      "효": 915,
      "후": 916,
      "히": 917,
      "": 918,
      "": 919,
      "": 920,
      "": 921,
      "": 922,
      "": 923,
      "": 924,
      "": 925,
      "": 926,
      "": 927,
      "": 928,
      "": 929,
      "": 930,
      "": 931,
      "": 932,
      "": 933,
      "": 934,
      "": 935,
      "": 936,
      "ﬂ": 937,
      "︎": 938,
      "️": 939,
      "﹍": 940,
      "﻿": 941,
      "！": 942,
      "（": 943,
      "）": 944,
      "＋": 945,
      "，": 946,
      "：": 947,
      "？": 948,
      "＠": 949,
      "･": 950,
      "￼": 951,
      "�": 952,
      "𝐵": 953,
      "𝐿": 954,
      "𝑒": 955,
      "𝑔": 956,
      "𝑜": 957,
      "𝒞": 958,
      "𝒶": 959,
      "𝒷": 960,
      "𝒸": 961,
      "𝒹": 962,
      "𝒻": 963,
      "𝒾": 964,
      "𝓀": 965,
      "𝓁": 966,
      "𝓂": 967,
      "𝓃": 968,
      "𝓅": 969,
      "𝓇": 970,
      "𝓊": 971,
      "𝓋": 972,
      "𝓍": 973,
      "🇦": 974,
      "🇧": 975,
      "🇨": 976,
      "🇩": 977,
      "🇪": 978,
      "🇬": 979,
      "🇭": 980,
      "🇰": 981,
      "🇱": 982,
      "🇳": 983,
      "🇸": 984,
      "🇹": 985,
      "🇺": 986,
      "🇻": 987,
      "🌈": 988,
      "🌊": 989,
      "🌍": 990,
      "🌎": 991,
      "🌏": 992,
      "🌐": 993,
      "🌞": 994,
      "🌟": 995,
      "🌠": 996,
      "🌱": 997,
      "🌲": 998,
      "🌳": 999,
      "🌴": 1000,
      "🌹": 1001,
      "🌺": 1002,
      "🌼": 1003,
      "🌿": 1004,
      "🍀": 1005,
      "🎄": 1006,
      "🎉": 1007,
      "🎊": 1008,
      "🎩": 1009,
      "🎵": 1010,
      "🎶": 1011,
      "🏃": 1012,
      "🏆": 1013,
      "🏝": 1014,
      "🏞": 1015,
      "🏠": 1016,
      "🏡": 1017,
      "🏢": 1018,
      "🏻": 1019,
      "🏼": 1020,
      "🏽": 1021,
      "🐑": 1022,
      "🐝": 1023,
      "🐠": 1024,
      "👂": 1025,
      "👃": 1026,
      "👇": 1027,
      "👈": 1028,
      "👉": 1029,
      "👊": 1030,
      "👋": 1031,
      "👌": 1032,
      "👍": 1033,
      "👎": 1034,
      "👏": 1035,
      "👩": 1036,
      "👽": 1037,
      "💀": 1038,
      "💃": 1039,
      "💎": 1040,
      "💐": 1041,
      "💓": 1042,
      "💔": 1043,
      "💙": 1044,
      "💚": 1045,
      "💞": 1046,
      "💡": 1047,
      "💥": 1048,
      "💩": 1049,
      "💪": 1050,
      "💯": 1051,
      "💰": 1052,
      "💳": 1053,
      "💸": 1054,
      "💻": 1055,
      "📅": 1056,
      "📉": 1057,
      "📋": 1058,
      "📍": 1059,
      "📞": 1060,
      "📠": 1061,
      "📡": 1062,
      "📢": 1063,
      "📣": 1064,
      "📥": 1065,
      "📧": 1066,
      "📨": 1067,
      "📩": 1068,
      "📱": 1069,
      "📲": 1070,
      "🔅": 1071,
      "🔊": 1072,
      "🔋": 1073,
      "🔌": 1074,
      "🔎": 1075,
      "🔗": 1076,
      "🔥": 1077,
      "🔧": 1078,
      "🔨": 1079,
      "🔮": 1080,
      "🕊": 1081,
      "🕾": 1082,
      "🖂": 1083,
      "🖕": 1084,
      "🖖": 1085,
      "🖥": 1086,
      "🖳": 1087,
      "🖷": 1088,
      "😀": 1089,
      "😁": 1090,
      "😂": 1091,
      "😃": 1092,
      "😄": 1093,
      "😅": 1094,
      "😆": 1095,
      "😇": 1096,
      "😉": 1097,
      "😊": 1098,
      "😋": 1099,
      "😌": 1100,
      "😍": 1101,
      "😎": 1102,
      "😏": 1103,
      "😐": 1104,
      "😓": 1105,
      "😔": 1106,
      "😕": 1107,
      "😖": 1108,
      "😚": 1109,
      "😛": 1110,
      "😜": 1111,
      "😝": 1112,
      "😞": 1113,
      "😠": 1114,
      "😡": 1115,
      "😢": 1116,
      "😤": 1117,
      "😩": 1118,
      "😪": 1119,
      "😫": 1120,
      "😬": 1121,
      "😭": 1122,
      "😮": 1123,
      "😯": 1124,
      "😰": 1125,
      "😱": 1126,
      "😲": 1127,
      "😳": 1128,
      "🙁": 1129,
      "🙂": 1130,
      "🙄": 1131,
      "🙈": 1132,
      "🙉": 1133,
      "🙊": 1134,
      "🙋": 1135,
      "🙌": 1136,
      "🙏": 1137,
      "🚀": 1138,
      "🚩": 1139,
      "🛝": 1140,
      "🛠": 1141,
      "🛸": 1142,
      "🟠": 1143,
      "🤔": 1144,
      "🤗": 1145,
      "🤙": 1146,
      "🤛": 1147,
      "🤡": 1148,
      "🤣": 1149,
      "🤦": 1150,
      "🤩": 1151,
      "🤪": 1152,
      "🤭": 1153,
      "🤷": 1154,
      "🥇": 1155,
      "🥰": 1156,
      "🥲": 1157,
      "🥳": 1158,
      "🥵": 1159,
      "🥶": 1160,
      "🥺": 1161,
      "🦋": 1162,
      "🦚": 1163,
      "🧡": 1164,
      "🧩": 1165,
      "🧮": 1166,
      "🫠": 1167,
      "🫣": 1168,
      "🫶": 1169,
      "en": 1170,
      "er": 1171,
      "ch": 1172,
      "ei": 1173,
      "un": 1174,
      "ie": 1175,
      "te": 1176,
      "an": 1177,
      "ich": 1178,
      "in": 1179,
      "on": 1180,
      "ein": 1181,
      "st": 1182,
      "ge": 1183,
      "al": 1184,
      "au": 1185,
      "der": 1186,
      "die": 1187,
      "de": 1188,
      "da": 1189,
      "re": 1190,
      "le": 1191,
      "ung": 1192,
      "it": 1193,
      "sch": 1194,
      "or": 1195,
      "den": 1196,
      "ti": 1197,
      "um": 1198,
      "be": 1199,
      "und": 1200,
      "ten": 1201,
      "ss": 1202,
      "ter": 1203,
      "ar": 1204,
      "zu": 1205,
      "gen": 1206,
      "ne": 1207,
      "ll": 1208,
      "ver": 1209,
      "sie": 1210,
      "eine": 1211,
      "ir": 1212,
      "se": 1213,
      "hr": 1214,
      "ha": 1215,
      "lo": 1216,
      "fü": 1217,
      "mit": 1218,
      "ber": 1219,
      "icht": 1220,
      "ra": 1221,
      "mer": 1222,
      "ru": 1223,
      "ben": 1224,
      "ier": 1225,
      "ma": 1226,
      "tz": 1227,
      "am": 1228,
      "ro": 1229,
      "ste": 1230,
      "si": 1231,
      "ist": 1232,
      "il": 1233,
      "gt": 1234,
      "ur": 1235,
      "sp": 1236,
      "hal": 1237,
      "lich": 1238,
      "num": 1239,
      "auf": 1240,
      "ruf": 1241,
      "bei": 1242,
      "für": 1243,
      "nummer": 1244,
      "so": 1245,
      "wir": 1246,
      "fon": 1247,
      "das": 1248,
      "me": 1249,
      "nicht": 1250,
      "ann": 1251,
      "tele": 1252,
      "ate": 1253,
      "la": 1254,
      "es": 1255,
      "nen": 1256,
      "telefon": 1257,
      "ck": 1258,
      "tion": 1259,
      "wei": 1260,
      "ger": 1261,
      "men": 1262,
      "ih": 1263,
      "ko": 1264,
      "ach": 1265,
      "rü": 1266,
      "im": 1267,
      "von": 1268,
      "co": 1269,
      "eit": 1270,
      "hallo": 1271,
      "di": 1272,
      "aus": 1273,
      "sip": 1274,
      "el": 1275,
      "her": 1276,
      "ser": 1277,
      "wie": 1278,
      "no": 1279,
      "and": 1280,
      "mail": 1281,
      "ta": 1282,
      "ön": 1283,
      "len": 1284,
      "ank": 1285,
      "wer": 1286,
      "lt": 1287,
      "über": 1288,
      "rei": 1289,
      "ort": 1290,
      "pro": 1291,
      "ab": 1292,
      "kön": 1293,
      "vie": 1294,
      "kann": 1295,
      "fe": 1296,
      "is": 1297,
      "gate": 1298,
      "ut": 1299,
      "sipgate": 1300,
      "auch": 1301,
      "ihre": 1302,
      "lei": 1303,
      "rufnummer": 1304,
      "ft": 1305,
      "at": 1306,
      "sen": 1307,
      "pp": 1308,
      "ac": 1309,
      "bit": 1310,
      "to": 1311,
      "kon": 1312,
      "kun": 1313,
      "he": 1314,
      "nach": 1315,
      "stell": 1316,
      "dank": 1317,
      "unk": 1318,
      "chen": 1319,
      "haben": 1320,
      "ad": 1321,
      "kom": 1322,
      "können": 1323,
      "as": 1324,
      "mö": 1325,
      "unter": 1326,
      "sich": 1327,
      "einen": 1328,
      "dem": 1329,
      "hen": 1330,
      "ind": 1331,
      "än": 1332,
      "anruf": 1333,
      "utz": 1334,
      "all": 1335,
      "wen": 1336,
      "vor": 1337,
      "ing": 1338,
      "bitte": 1339,
      "ent": 1340,
      "je": 1341,
      "fi": 1342,
      "sten": 1343,
      "weiter": 1344,
      "fra": 1345,
      "tra": 1346,
      "werden": 1347,
      "bu": 1348,
      "oder": 1349,
      "diese": 1350,
      "ak": 1351,
      "vo": 1352,
      "unt": 1353,
      "ce": 1354,
      "count": 1355,
      "ungen": 1356,
      "account": 1357,
      "we": 1358,
      "ihr": 1359,
      "dass": 1360,
      "des": 1361,
      "mo": 1362,
      "noch": 1363,
      "ieren": 1364,
      "hl": 1365,
      "habe": 1366,
      "for": 1367,
      "ssen": 1368,
      "li": 1369,
      "du": 1370,
      "iert": 1371,
      "ho": 1372,
      "grü": 1373,
      "kunden": 1374,
      "fr": 1375,
      "nb": 1376,
      "neu": 1377,
      "hat": 1378,
      "herr": 1379,
      "funk": 1380,
      "mal": 1381,
      "vielen": 1382,
      "vi": 1383,
      ";;": 1384,
      "ff": 1385,
      "tier": 1386,
      "sse": 1387,
      "ange": 1388,
      "wo": 1389,
      "ri": 1390,
      "inter": 1391,
      "uns": 1392,
      "fo": 1393,
      "nbsp": 1394,
      "fa": 1395,
      "grüß": 1396,
      "glich": 1397,
      "lli": 1398,
      "lin": 1399,
      "unser": 1400,
      "ip": 1401,
      "daten": 1402,
      "mel": 1403,
      "lie": 1404,
      "ungs": 1405,
      "gu": 1406,
      "tr": 1407,
      "su": 1408,
      "sate": 1409,
      "per": 1410,
      "ün": 1411,
      "wird": 1412,
      "rück": 1413,
      "rech": 1414,
      "meine": 1415,
      "llite": 1416,
      "',": 1417,
      "che": 1418,
      "satellite": 1419,
      "do": 1420,
      "gesch": 1421,
      "amp": 1422,
      "por": 1423,
      "man": 1424,
      "tiv": 1425,
      "ht": 1426,
      "tet": 1427,
      "wenn": 1428,
      "sind": 1429,
      "portier": 1430,
      "einer": 1431,
      "kt": 1432,
      "mehr": 1433,
      "funktion": 1434,
      "hier": 1435,
      "adre": 1436,
      "war": 1437,
      "wi": 1438,
      "ihnen": 1439,
      "dann": 1440,
      "fre": 1441,
      "bil": 1442,
      "lö": 1443,
      "als": 1444,
      "00": 1445,
      "alle": 1446,
      "aber": 1447,
      "trag": 1448,
      "neh": 1449,
      "bo": 1450,
      "arbei": 1451,
      "net": 1452,
      "rie": 1453,
      "möglich": 1454,
      "tzt": 1455,
      "ts": 1456,
      "pa": 1457,
      "id": 1458,
      "nur": 1459,
      "wur": 1460,
      "wa": 1461,
      "ble": 1462,
      "tei": 1463,
      "tig": 1464,
      "dung": 1465,
      "et": 1466,
      "netz": 1467,
      "fol": 1468,
      "ph": 1469,
      "schl": 1470,
      "soll": 1471,
      "tag": 1472,
      "det": 1473,
      "art": 1474,
      "adresse": 1475,
      "team": 1476,
      "was": 1477,
      "ation": 1478,
      "nutz": 1479,
      "dur": 1480,
      "uss": 1481,
      "mir": 1482,
      "änder": 1483,
      "cht": 1484,
      "zei": 1485,
      "durch": 1486,
      "mb": 1487,
      "frage": 1488,
      "anla": 1489,
      "möch": 1490,
      "tel": 1491,
      "keine": 1492,
      "schen": 1493,
      "ang": 1494,
      "lichen": 1495,
      "zum": 1496,
      "one": 1497,
      "zeit": 1498,
      "zur": 1499,
      "gi": 1500,
      "bie": 1501,
      "fin": 1502,
      "app": 1503,
      "bet": 1504,
      "ür": 1505,
      "ner": 1506,
      "wä": 1507,
      "the": 1508,
      "bar": 1509,
      "fen": 1510,
      "em": 1511,
      "proble": 1512,
      "richt": 1513,
      "fer": 1514,
      "leider": 1515,
      "20": 1516,
      "verb": 1517,
      "ander": 1518,
      "einem": 1519,
      "49": 1520,
      "gehen": 1521,
      ";&": 1522,
      "hin": 1523,
      "wurde": 1524,
      "mobil": 1525,
      "guten": 1526,
      "sim": 1527,
      "min": 1528,
      "halten": 1529,
      ":',": 1530,
      "..": 1531,
      "nehmen": 1532,
      "rufnummern": 1533,
      "grüße": 1534,
      "sa": 1535,
      "sehr": 1536,
      "führ": 1537,
      "fax": 1538,
      "ud": 1539,
      "mbh": 1540,
      "son": 1541,
      "gerä": 1542,
      "aktiv": 1543,
      "ue": 1544,
      "geben": 1545,
      "lle": 1546,
      "gerne": 1547,
      "gmbh": 1548,
      "ja": 1549,
      "gr": 1550,
      "rich": 1551,
      "telefonie": 1552,
      "lä": 1553,
      "sin": 1554,
      "nam": 1555,
      "wel": 1556,
      "end": 1557,
      "kommen": 1558,
      "ess": 1559,
      "mich": 1560,
      "email": 1561,
      "bt": 1562,
      "clo": 1563,
      "frau": 1564,
      "ant": 1565,
      "10": 1566,
      "rechn": 1567,
      "kün": 1568,
      "komm": 1569,
      "log": 1570,
      "wieder": 1571,
      "stellen": 1572,
      "freund": 1573,
      "eu": 1574,
      "anlage": 1575,
      "ba": 1576,
      "sam": 1577,
      "cloud": 1578,
      "soft": 1579,
      "sche": 1580,
      "benutz": 1581,
      "mon": 1582,
      "ik": 1583,
      "infor": 1584,
      "bis": 1585,
      "kosten": 1586,
      "leit": 1587,
      "us": 1588,
      "11": 1589,
      "dig": 1590,
      "möchte": 1591,
      "gesp": 1592,
      "fiz": 1593,
      "fragen": 1594,
      "viele": 1595,
      "fall": 1596,
      "jetzt": 1597,
      "wor": 1598,
      "ster": 1599,
      "za": 1600,
      "ig": 1601,
      "betre": 1602,
      "portierung": 1603,
      "meldung": 1604,
      "reg": 1605,
      "anbie": 1606,
      "best": 1607,
      "äch": 1608,
      "phone": 1609,
      "ehr": 1610,
      "dar": 1611,
      "reich": 1612,
      "konto": 1613,
      "th": 1614,
      "liche": 1615,
      "hand": 1616,
      "con": 1617,
      "na": 1618,
      "busin": 1619,
      "schrie": 1620,
      "business": 1621,
      "ör": 1622,
      "problem": 1623,
      "nachricht": 1624,
      "fest": 1625,
      "benutzer": 1626,
      "mein": 1627,
      "sy": 1628,
      "anfrage": 1629,
      "hlen": 1630,
      "tung": 1631,
      "frei": 1632,
      "sel": 1633,
      "fach": 1634,
      "gru": 1635,
      "ed": 1636,
      "ag": 1637,
      "anbieter": 1638,
      "ob": 1639,
      "telefonanlage": 1640,
      "ierung": 1641,
      "eits": 1642,
      "stand": 1643,
      "po": 1644,
      "mation": 1645,
      "ex": 1646,
      "grüßen": 1647,
      "anrufe": 1648,
      "12": 1649,
      "geehr": 1650,
      "immer": 1651,
      "ari": 1652,
      "gut": 1653,
      "br": 1654,
      "pf": 1655,
      "stellt": 1656,
      "danke": 1657,
      "qu": 1658,
      "verbind": 1659,
      "zug": 1660,
      "mü": 1661,
      "akt": 1662,
      "77": 1663,
      "deut": 1664,
      "pla": 1665,
      "itz": 1666,
      "com": 1667,
      "freundlichen": 1668,
      "cken": 1669,
      "ct": 1670,
      "voip": 1671,
      "teil": 1672,
      "erhalten": 1673,
      "wort": 1674,
      "sein": 1675,
      "kar": 1676,
      "information": 1677,
      "schrieb": 1678,
      "name": 1679,
      "15": 1680,
      "uell": 1681,
      "vertrag": 1682,
      "sm": 1683,
      "veri": 1684,
      "sei": 1685,
      "hinter": 1686,
      "hil": 1687,
      "han": 1688,
      "dies": 1689,
      "nun": 1690,
      "regist": 1691,
      "doch": 1692,
      "gibt": 1693,
      "leitung": 1694,
      "internet": 1695,
      "dieser": 1696,
      "tigen": 1697,
      "neue": 1698,
      "of": 1699,
      "enz": 1700,
      "geschä": 1701,
      "ul": 1702,
      "geehrte": 1703,
      "geschäft": 1704,
      "anschl": 1705,
      "mar": 1706,
      "nutzen": 1707,
      "ration": 1708,
      "30": 1709,
      "supp": 1710,
      "wür": 1711,
      "kunde": 1712,
      "ve": 1713,
      "folgen": 1714,
      "fehl": 1715,
      "keit": 1716,
      "gel": 1717,
      "ihrer": 1718,
      "unsere": 1719,
      "web": 1720,
      "gespr": 1721,
      "support": 1722,
      "muss": 1723,
      "gan": 1724,
      "grupp": 1725,
      "yo": 1726,
      "iel": 1727,
      "geb": 1728,
      "port": 1729,
      "7c": 1730,
      "ihrem": 1731,
      "test": 1732,
      "einmal": 1733,
      "rekt": 1734,
      "einfach": 1735,
      "verifiz": 1736,
      "einstell": 1737,
      "mi": 1738,
      "geht": 1739,
      "sendet": 1740,
      "finden": 1741,
      "op": 1742,
      "ffen": 1743,
      "ga": 1744,
      "kl": 1745,
      "schon": 1746,
      "pass": 1747,
      "stat": 1748,
      "damen": 1749,
      "bereits": 1750,
      "grund": 1751,
      "bi": 1752,
      "produ": 1753,
      "sicher": 1754,
      "legen": 1755,
      "herren": 1756,
      "lau": 1757,
      "kundennummer": 1758,
      "unternehmen": 1759,
      "geschäfts": 1760,
      "ät": 1761,
      "ken": 1762,
      "code": 1763,
      "ni": 1764,
      "star": 1765,
      "funktioniert": 1766,
      "22": 1767,
      "14": 1768,
      "auto": 1769,
      "ap": 1770,
      "benö": 1771,
      "ihren": 1772,
      "konta": 1773,
      "ok": 1774,
      "13": 1775,
      "buch": 1776,
      "sehen": 1777,
      "rechen": 1778,
      "16": 1779,
      "17": 1780,
      "welche": 1781,
      "zahl": 1782,
      "dien": 1783,
      "syste": 1784,
      "bin": 1785,
      "handy": 1786,
      "damit": 1787,
      "line": 1788,
      "call": 1789,
      "verbindung": 1790,
      "deine": 1791,
      "kündi": 1792,
      "servi": 1793,
      "tari": 1794,
      "monat": 1795,
      "stra": 1796,
      "beste": 1797,
      "dazu": 1798,
      "zwei": 1799,
      "uhr": 1800,
      "einge": 1801,
      "mati": 1802,
      "lassen": 1803,
      "anschluss": 1804,
      "tech": 1805,
      "hn": 1806,
      "place": 1807,
      "gesendet": 1808,
      "ße": 1809,
      "hilfe": 1810,
      "scha": 1811,
      "up": 1812,
      "rechnung": 1813,
      "tes": 1814,
      "weise": 1815,
      "sammen": 1816,
      "zusammen": 1817,
      "erreich": 1818,
      "eld": 1819,
      "ings": 1820,
      "ute": 1821,
      "kommun": 1822,
      "senden": 1823,
      "ändern": 1824,
      "glei": 1825,
      "fehler": 1826,
      "informationen": 1827,
      "erreichbar": 1828,
      "cre": 1829,
      "artner": 1830,
      "oh": 1831,
      "rückmeldung": 1832,
      "könn": 1833,
      "99": 1834,
      "legt": 1835,
      "str": 1836,
      "falls": 1837,
      "eich": 1838,
      "placetel": 1839,
      "ze": 1840,
      "setz": 1841,
      "fla": 1842,
      "nummern": 1843,
      "ke": 1844,
      "llen": 1845,
      "festnetz": 1846,
      "karte": 1847,
      "also": 1848,
      "gerät": 1849,
      "einstellungen": 1850,
      "stän": 1851,
      "prü": 1852,
      "wahl": 1853,
      "eigen": 1854,
      "kur": 1855,
      "anderen": 1856,
      "automati": 1857,
      "vom": 1858,
      "alles": 1859,
      "erfol": 1860,
      "üss": 1861,
      "eben": 1862,
      "hel": 1863,
      "kein": 1864,
      "sprechen": 1865,
      "schri": 1866,
      "schlie": 1867,
      "direkt": 1868,
      "fir": 1869,
      "ard": 1870,
      "sollte": 1871,
      "tige": 1872,
      "dn": 1873,
      "lan": 1874,
      "box": 1875,
      "arbeiter": 1876,
      "verwen": 1877,
      "neuen": 1878,
      "weitere": 1879,
      "wün": 1880,
      "verfü": 1881,
      "konfi": 1882,
      "kli": 1883,
      "beim": 1884,
      "würde": 1885,
      "ple": 1886,
      "bestä": 1887,
      "ohne": 1888,
      "ige": 1889,
      "wal": 1890,
      "aktuell": 1891,
      "guthaben": 1892,
      "23": 1893,
      "geschäftsführ": 1894,
      "schließ": 1895,
      "tragen": 1896,
      "telefonieren": 1897,
      "ls": 1898,
      "zw": 1899,
      "dr": 1900,
      "kommt": 1901,
      "kte": 1902,
      "schie": 1903,
      "trunk": 1904,
      "system": 1905,
      "weis": 1906,
      "voi": 1907,
      "betreff": 1908,
      "service": 1909,
      "mitarbeiter": 1910,
      "ware": 1911,
      "##": 1912,
      "müssen": 1913,
      "stan": 1914,
      "spra": 1915,
      "pe": 1916,
      "kommunik": 1917,
      "person": 1918,
      "kommunikation": 1919,
      "imm": 1920,
      "beisp": 1921,
      "lös": 1922,
      "schrift": 1923,
      "tt": 1924,
      "standort": 1925,
      "elle": 1926,
      "voice": 1927,
      "ität": 1928,
      "hren": 1929,
      "ment": 1930,
      "40": 1931,
      "laden": 1932,
      "mobilfunk": 1933,
      "vertr": 1934,
      "straße": 1935,
      "ly": 1936,
      "versu": 1937,
      "igen": 1938,
      "betreu": 1939,
      "ka": 1940,
      "inte": 1941,
      "los": 1942,
      "jedoch": 1943,
      "richten": 1944,
      "gespräch": 1945,
      "empf": 1946,
      "nochmal": 1947,
      "meinen": 1948,
      "tick": 1949,
      "tarif": 1950,
      "ler": 1951,
      "sä": 1952,
      "dat": 1953,
      "zie": 1954,
      "kolle": 1955,
      "buchen": 1956,
      "fraud": 1957,
      "hande": 1958,
      "verfüg": 1959,
      "löschen": 1960,
      "konn": 1961,
      "link": 1962,
      "_id": 1963,
      "meinem": 1964,
      "tp": 1965,
      "seit": 1966,
      "hör": 1967,
      "08": 1968,
      "om": 1969,
      "sonder": 1970,
      "funktionen": 1971,
      "gestellt": 1972,
      "zeigt": 1973,
      "wählen": 1974,
      "auer": 1975,
      "geräte": 1976,
      "pri": 1977,
      "softphone": 1978,
      "aktivieren": 1979,
      "angen": 1980,
      "ca": 1981,
      "sicht": 1982,
      "betreuung": 1983,
      "18": 1984,
      "hö": 1985,
      "hä": 1986,
      "'',": 1987,
      "eines": 1988,
      "gn": 1989,
      "55": 1990,
      "mä": 1991,
      "punk": 1992,
      "eingehen": 1993,
      "ferenz": 1994,
      "rout": 1995,
      "erst": 1996,
      "antwort": 1997,
      "not": 1998,
      "scht": 1999,
      "ticket": 2000,
      "sion": 2001,
      "zurück": 2002,
      "09": 2003,
      "ade": 2004,
      "asy": 2005,
      "hatte": 2006,
      "sto": 2007,
      "19": 2008,
      "partner": 2009,
      "anrufen": 2010,
      "24": 2011,
      "age": 2012,
      "bell": 2013,
      "nah": 2014,
      "unden": 2015,
      "kundenbetreuung": 2016,
      "seite": 2017,
      "ale": 2018,
      "orgen": 2019,
      "fal": 2020,
      "datum": 2021,
      "sms": 2022,
      "fä": 2023,
      "schrei": 2024,
      "bucht": 2025,
      "you": 2026,
      "forder": 2027,
      "halb": 2028,
      "letz": 2029,
      "heute": 2030,
      "gruppe": 2031,
      "dort": 2032,
      "leg": 2033,
      "nr": 2034,
      "easy": 2035,
      "asst": 2036,
      "schal": 2037,
      "geschäftsführer": 2038,
      "xx": 2039,
      "portieren": 2040,
      "hei": 2041,
      "02": 2042,
      "schne": 2043,
      "bst": 2044,
      "accounts": 2045,
      "umen": 2046,
      "ausgehen": 2047,
      "gelö": 2048,
      "weg": 2049,
      "teams": 2050,
      "reichen": 2051,
      "orf": 2052,
      "hi": 2053,
      "gericht": 2054,
      "zo": 2055,
      "go": 2056,
      "inst": 2057,
      "aller": 2058,
      "schi": 2059,
      "mann": 2060,
      "bzw": 2061,
      "esim": 2062,
      "lär": 2063,
      "dir": 2064,
      "//": 2065,
      "21": 2066,
      "ian": 2067,
      "...": 2068,
      "möchten": 2069,
      "unserer": 2070,
      "wohl": 2071,
      "antwor": 2072,
      "easybell": 2073,
      "gl": 2074,
      "gerade": 2075,
      "routing": 2076,
      "info": 2077,
      "diesem": 2078,
      "deutschl": 2079,
      "ws": 2080,
      "deutschland": 2081,
      "06": 2082,
      "ckt": 2083,
      "fritz": 2084,
      "sätz": 2085,
      "register": 2086,
      "setzt": 2087,
      "ausge": 2088,
      "25": 2089,
      "kündig": 2090,
      "uter": 2091,
      "rief": 2092,
      "konferenz": 2093,
      "ende": 2094,
      "bank": 2095,
      "liegen": 2096,
      "registr": 2097,
      "form": 2098,
      "brauch": 2099,
      "gelei": 2100,
      "aut": 2101,
      "telefone": 2102,
      "klär": 2103,
      "tro": 2104,
      "gra": 2105,
      "erfolg": 2106,
      "genau": 2107,
      "neben": 2108,
      "selbst": 2109,
      "dok": 2110,
      "01": 2111,
      "hrb": 2112,
      "punkt": 2113,
      "einz": 2114,
      "richtig": 2115,
      "anrufer": 2116,
      "spro": 2117,
      "ins": 2118,
      "gleich": 2119,
      "ds": 2120,
      "rom": 2121,
      "hän": 2122,
      "land": 2123,
      "möglichkeit": 2124,
      "gegen": 2125,
      "denn": 2126,
      "ändert": 2127,
      "alter": 2128,
      "diesen": 2129,
      "uni": 2130,
      "morgen": 2131,
      "melden": 2132,
      "dieses": 2133,
      "prei": 2134,
      "klicken": 2135,
      "itt": 2136,
      "heit": 2137,
      "sst": 2138,
      "verwal": 2139,
      "liste": 2140,
      "eur": 2141,
      "beispiel": 2142,
      "this": 2143,
      "sowie": 2144,
      "daher": 2145,
      "brief": 2146,
      "weiterleitung": 2147,
      "fort": 2148,
      "alis": 2149,
      "ech": 2150,
      "stelle": 2151,
      "wech": 2152,
      "passwort": 2153,
      "gar": 2154,
      "kor": 2155,
      "ihres": 2156,
      "probleme": 2157,
      "aufge": 2158,
      "lauf": 2159,
      "stellung": 2160,
      "änger": 2161,
      "abge": 2162,
      "sollten": 2163,
      "bot": 2164,
      "ganz": 2165,
      "sprach": 2166,
      "arbeit": 2167,
      "hinzu": 2168,
      "kurz": 2169,
      "klin": 2170,
      "entsprechen": 2171,
      "isch": 2172,
      "schr": 2173,
      "bal": 2174,
      "nichts": 2175,
      "chr": 2176,
      "steht": 2177,
      "kei": 2178,
      "mobi": 2179,
      "uer": 2180,
      "bekommen": 2181,
      "schein": 2182,
      "uten": 2183,
      "mobile": 2184,
      "keinen": 2185,
      "chat": 2186,
      "andere": 2187,
      "lock": 2188,
      "set": 2189,
      "tigt": 2190,
      "dich": 2191,
      "ere": 2192,
      "meiner": 2193,
      "ion": 2194,
      "flatra": 2195,
      "lu": 2196,
      "lossen": 2197,
      "wissen": 2198,
      "machen": 2199,
      "urg": 2200,
      "arbeiten": 2201,
      "neut": 2202,
      "os": 2203,
      "mitt": 2204,
      "angezeigt": 2205,
      "geleitet": 2206,
      "03": 2207,
      "pre": 2208,
      "sitz": 2209,
      "öff": 2210,
      "pak": 2211,
      "ütz": 2212,
      "stehen": 2213,
      "setzen": 2214,
      "tive": 2215,
      "wäre": 2216,
      "eldorf": 2217,
      "düss": 2218,
      "hau": 2219,
      "ieb": 2220,
      "pha": 2221,
      "ommen": 2222,
      "werk": 2223,
      "erneut": 2224,
      "unseren": 2225,
      "ingen": 2226,
      "hlt": 2227,
      "voll": 2228,
      "lösung": 2229,
      "konnte": 2230,
      "cen": 2231,
      "kannst": 2232,
      "wich": 2233,
      "cli": 2234,
      "offi": 2235,
      "düsseldorf": 2236,
      "euro": 2237,
      "dings": 2238,
      "aufla": 2239,
      "guration": 2240,
      "keiten": 2241,
      "ien": 2242,
      "kla": 2243,
      "login": 2244,
      "pt": 2245,
      "stör": 2246,
      "online": 2247,
      "gro": 2248,
      "tran": 2249,
      "ev": 2250,
      "bü": 2251,
      "05": 2252,
      "ial": 2253,
      "rechnungen": 2254,
      "allerdings": 2255,
      "unserem": 2256,
      "tlich": 2257,
      "änderung": 2258,
      "gef": 2259,
      "derzeit": 2260,
      "amts": 2261,
      "ated": 2262,
      "liegt": 2263,
      "satz": 2264,
      "prüfen": 2265,
      "jan": 2266,
      "aktiviert": 2267,
      "ern": 2268,
      "nehmer": 2269,
      "produkt": 2270,
      "gabe": 2271,
      "wechsel": 2272,
      "admin": 2273,
      "konfiguration": 2274,
      "nahme": 2275,
      "zwi": 2276,
      "flatrate": 2277,
      "uelle": 2278,
      "gruppen": 2279,
      "29": 2280,
      "priv": 2281,
      "dienst": 2282,
      "vide": 2283,
      "gration": 2284,
      "unterst": 2285,
      "mu": 2286,
      "ufen": 2287,
      "dabei": 2288,
      "welch": 2289,
      "user": 2290,
      "bisher": 2291,
      "office": 2292,
      "hinterlegt": 2293,
      "kündigung": 2294,
      "basi": 2295,
      "26": 2296,
      "zwischen": 2297,
      ".,": 2298,
      "euch": 2299,
      "testen": 2300,
      "hast": 2301,
      "meldet": 2302,
      "teilen": 2303,
      "sender": 2304,
      "33": 2305,
      "tre": 2306,
      "integration": 2307,
      "woll": 2308,
      "standar": 2309,
      "ßer": 2310,
      "namen": 2311,
      "benötigen": 2312,
      "etwas": 2313,
      "par": 2314,
      "err": 2315,
      "voicemail": 2316,
      "27": 2317,
      "einrichten": 2318,
      "kündigen": 2319,
      "wit": 2320,
      "zugang": 2321,
      "home": 2322,
      "kündigt": 2323,
      "techni": 2324,
      "nom": 2325,
      "dein": 2326,
      "option": 2327,
      "cro": 2328,
      "out": 2329,
      "ya": 2330,
      "==": 2331,
      "weitergeleitet": 2332,
      "bereich": 2333,
      "bitten": 2334,
      "verifizierung": 2335,
      "zusätz": 2336,
      "minuten": 2337,
      "ansa": 2338,
      "gerufen": 2339,
      "2e": 2340,
      "warum": 2341,
      "amtsgericht": 2342,
      "dauer": 2343,
      "50": 2344,
      "nfon": 2345,
      "mm": 2346,
      "anlagen": 2347,
      "ada": 2348,
      "vir": 2349,
      "betr": 2350,
      "ust": 2351,
      "iv": 2352,
      "dafür": 2353,
      "from": 2354,
      "nat": 2355,
      "gewün": 2356,
      "version": 2357,
      "kontakt": 2358,
      "offen": 2359,
      "geschlossen": 2360,
      "blei": 2361,
      "aa": 2362,
      "liebe": 2363,
      "3d": 2364,
      "vid": 2365,
      "http": 2366,
      "macht": 2367,
      "dokumen": 2368,
      "qual": 2369,
      "schnell": 2370,
      "28": 2371,
      "sted": 2372,
      "einzel": 2373,
      "einricht": 2374,
      "schaft": 2375,
      "geändert": 2376,
      "entr": 2377,
      "bel": 2378,
      "bald": 2379,
      "04": 2380,
      "jo": 2381,
      "folgende": 2382,
      "verfügung": 2383,
      "viel": 2384,
      "ord": 2385,
      "ms": 2386,
      "gekündigt": 2387,
      "created": 2388,
      "sho": 2389,
      "server": 2390,
      "kre": 2391,
      "://": 2392,
      "will": 2393,
      "führen": 2394,
      "vertrags": 2395,
      "christ": 2396,
      "ity": 2397,
      "schei": 2398,
      "ierungs": 2399,
      "feb": 2400,
      "gesprä": 2401,
      "schieden": 2402,
      "34": 2403,
      "pb": 2404,
      "weil": 2405,
      "gebucht": 2406,
      "phase": 2407,
      "ierte": 2408,
      "sign": 2409,
      "steuer": 2410,
      "fahren": 2411,
      "video": 2412,
      "bestimm": 2413,
      "telekom": 2414,
      "36": 2415,
      "auftrag": 2416,
      "weiteren": 2417,
      "zeich": 2418,
      "micro": 2419,
      "gang": 2420,
      "loggen": 2421,
      "stet": 2422,
      "warte": 2423,
      "kollegen": 2424,
      "besten": 2425,
      "work": 2426,
      "start": 2427,
      "software": 2428,
      "dan": 2429,
      "ure": 2430,
      "führt": 2431,
      "wurden": 2432,
      "angerufen": 2433,
      "sofort": 2434,
      "pr": 2435,
      "helfen": 2436,
      "zuge": 2437,
      "standard": 2438,
      "wollte": 2439,
      "provi": 2440,
      "erreichen": 2441,
      "center": 2442,
      "tigung": 2443,
      "fern": 2444,
      "arti": 2445,
      "spe": 2446,
      "nor": 2447,
      "https": 2448,
      "07": 2449,
      "kd": 2450,
      "desk": 2451,
      "rz": 2452,
      "nutzer": 2453,
      "ww": 2454,
      "ted": 2455,
      "scre": 2456,
      "schö": 2457,
      "schutz": 2458,
      "mei": 2459,
      "testphase": 2460,
      "7777": 2461,
      "gin": 2462,
      "screen": 2463,
      "portal": 2464,
      "gelöscht": 2465,
      "95": 2466,
      "100": 2467,
      "leist": 2468,
      "nutzung": 2469,
      "master": 2470,
      "anal": 2471,
      "rec": 2472,
      "kel": 2473,
      "ßen": 2474,
      "eure": 2475,
      "deal": 2476,
      "ot": 2477,
      "microsoft": 2478,
      "og": 2479,
      "einrichtung": 2480,
      "back": 2481,
      "bestehen": 2482,
      "komple": 2483,
      "pl": 2484,
      "feld": 2485,
      "berlin": 2486,
      "teilung": 2487,
      ".:": 2488,
      "inner": 2489,
      "last": 2490,
      "bl": 2491,
      "menü": 2492,
      "aufladung": 2493,
      "rat": 2494,
      "snom": 2495,
      "teilnehmer": 2496,
      "your": 2497,
      "betrag": 2498,
      "digit": 2499,
      "regel": 2500,
      "zentr": 2501,
      "ledi": 2502,
      "fügen": 2503,
      "data": 2504,
      "natür": 2505,
      "ase": 2506,
      "telefonnummer": 2507,
      "by": 2508,
      "preis": 2509,
      "hosted": 2510,
      "sta": 2511,
      "alterna": 2512,
      "status": 2513,
      "tieren": 2514,
      "grün": 2515,
      "finde": 2516,
      "sondern": 2517,
      "näch": 2518,
      "auen": 2519,
      "90": 2520,
      "van": 2521,
      "riff": 2522,
      "weiterhin": 2523,
      "währ": 2524,
      "komme": 2525,
      "weisen": 2526,
      "automatisch": 2527,
      "natürlich": 2528,
      "absender": 2529,
      "pbx": 2530,
      "mess": 2531,
      "verschieden": 2532,
      "rufen": 2533,
      "add": 2534,
      "if": 2535,
      "erfolgreich": 2536,
      "halt": 2537,
      "aten": 2538,
      "mittel": 2539,
      "ansage": 2540,
      "verwaltung": 2541,
      "außer": 2542,
      "sprochen": 2543,
      "sk": 2544,
      "wick": 2545,
      "fone": 2546,
      "gebü": 2547,
      "ton": 2548,
      "wn": 2549,
      "smart": 2550,
      "cr": 2551,
      "38": 2552,
      "post": 2553,
      "hält": 2554,
      "exter": 2555,
      "sol": 2556,
      "sser": 2557,
      "rechnungs": 2558,
      "rau": 2559,
      "kostenlos": 2560,
      "phon": 2561,
      "äge": 2562,
      "könnten": 2563,
      "router": 2564,
      "übertrag": 2565,
      "_sip": 2566,
      "gelt": 2567,
      "can": 2568,
      "tun": 2569,
      "hang": 2570,
      "vorname": 2571,
      "produkte": 2572,
      "virt": 2573,
      "tage": 2574,
      "sor": 2575,
      "gegeben": 2576,
      "intern": 2577,
      "sach": 2578,
      "wiesen": 2579,
      "genann": 2580,
      "gespräche": 2581,
      "60": 2582,
      "leiten": 2583,
      "anlegen": 2584,
      "netzwerk": 2585,
      "master_sip": 2586,
      "deal_id": 2587,
      "master_sip_id": 2588,
      "deal_ids": 2589,
      "88": 2590,
      "vort": 2591,
      "sende": 2592,
      "erklär": 2593,
      "glie": 2594,
      "beantwor": 2595,
      "lagen": 2596,
      "gte": 2597,
      "anz": 2598,
      "df": 2599,
      "qualität": 2600,
      "pers": 2601,
      "hard": 2602,
      "nie": 2603,
      "gend": 2604,
      "dio": 2605,
      "starten": 2606,
      "any": 2607,
      "35": 2608,
      "anbei": 2609,
      "bild": 2610,
      "märz": 2611,
      "german": 2612,
      "nachname": 2613,
      "cloudya": 2614,
      "sand": 2615,
      "iger": 2616,
      "firmen": 2617,
      "genutz": 2618,
      "hoch": 2619,
      "passen": 2620,
      "achten": 2621,
      "pi": 2622,
      "inform": 2623,
      "mitglie": 2624,
      "statt": 2625,
      "vortei": 2626,
      "####": 2627,
      "dru": 2628,
      "cis": 2629,
      "vol": 2630,
      "schreiben": 2631,
      "verl": 2632,
      "büro": 2633,
      "44": 2634,
      "orts": 2635,
      "telefonisch": 2636,
      "dit": 2637,
      "sste": 2638,
      "iph": 2639,
      "kontak": 2640,
      "lung": 2641,
      "läu": 2642,
      "hinterleg": 2643,
      "db": 2644,
      "apr": 2645,
      "sobald": 2646,
      "trotz": 2647,
      "portierungs": 2648,
      "cisco": 2649,
      "comp": 2650,
      "rückfragen": 2651,
      "ziel": 2652,
      "haltung": 2653,
      "meet": 2654,
      "gangen": 2655,
      "automatische": 2656,
      "andro": 2657,
      "berech": 2658,
      "einger": 2659,
      "scheint": 2660,
      "persön": 2661,
      "sal": 2662,
      "31": 2663,
      "eicht": 2664,
      "gemein": 2665,
      "wichtig": 2666,
      "bro": 2667,
      "kam": 2668,
      "tifiz": 2669,
      "burg": 2670,
      "ty": 2671,
      "client": 2672,
      "alen": 2673,
      "konfig": 2674,
      "thema": 2675,
      "unterstütz": 2676,
      "48": 2677,
      "marc": 2678,
      "iphone": 2679,
      "melde": 2680,
      "cke": 2681,
      "wann": 2682,
      "equ": 2683,
      "schicken": 2684,
      "spla": 2685,
      "tation": 2686,
      "ub": 2687,
      "medi": 2688,
      "leitungen": 2689,
      "kenn": 2690,
      "drück": 2691,
      "nik": 2692,
      "betrieb": 2693,
      "android": 2694,
      "=&": 2695,
      "ina": 2696,
      "sprech": 2697,
      "sell": 2698,
      "2f": 2699,
      "=\"": 2700,
      "bietet": 2701,
      "block": 2702,
      "mai": 2703,
      "gefasst": 2704,
      "termin": 2705,
      "zi": 2706,
      "schul": 2707,
      "cation": 2708,
      "lässt": 2709,
      "zusammengefasst": 2710,
      "schalten": 2711,
      "tä": 2712,
      "haupt": 2713,
      "via": 2714,
      "zogen": 2715,
      "zeitpunkt": 2716,
      "festnetznummer": 2717,
      "anwen": 2718,
      "fac": 2719,
      "neues": 2720,
      "event": 2721,
      "handelt": 2722,
      "iden": 2723,
      "konfigur": 2724,
      "jewei": 2725,
      "audio": 2726,
      "sz": 2727,
      "gern": 2728,
      "vorher": 2729,
      "mark": 2730,
      "handels": 2731,
      "max": 2732,
      "besprochen": 2733,
      "alten": 2734,
      "45": 2735,
      "folgenden": 2736,
      "sagt": 2737,
      "fil": 2738,
      "übersicht": 2739,
      "equada": 2740,
      "ichtet": 2741,
      "telefonanlagen": 2742,
      "buchung": 2743,
      "übertragen": 2744,
      "arbeitung": 2745,
      "stor": 2746,
      "somit": 2747,
      "bung": 2748,
      "install": 2749,
      "zü": 2750,
      "klapp": 2751,
      "bestätigung": 2752,
      "clin": 2753,
      "but": 2754,
      "les": 2755,
      "klingelt": 2756,
      "anliegen": 2757,
      "drei": 2758,
      "“.": 2759,
      "anzei": 2760,
      "haus": 2761,
      "passt": 2762,
      "üssel": 2763,
      "stern": 2764,
      "würden": 2765,
      "trans": 2766,
      "isdn": 2767,
      "top": 2768,
      "help": 2769,
      "tho": 2770,
      "jederzeit": 2771,
      "tar": 2772,
      "benach": 2773,
      "ständig": 2774,
      "clinq": 2775,
      "gesell": 2776,
      "wirk": 2777,
      "lar": 2778,
      "ay": 2779,
      "schlüssel": 2780,
      "wollen": 2781,
      "41": 2782,
      "verstän": 2783,
      "entwick": 2784,
      "viell": 2785,
      "iz": 2786,
      "werde": 2787,
      "störung": 2788,
      "ces": 2789,
      "paket": 2790,
      "einloggen": 2791,
      "vielleicht": 2792,
      "sdaten": 2793,
      "lesen": 2794,
      "ebenfalls": 2795,
      "39": 2796,
      "mün": 2797,
      "mäß": 2798,
      "xt": 2799,
      "flat": 2800,
      "anhang": 2801,
      "zahlung": 2802,
      "berg": 2803,
      "conne": 2804,
      "darauf": 2805,
      "formul": 2806,
      "ld": 2807,
      "gesam": 2808,
      "kn": 2809,
      "anie": 2810,
      "37": 2811,
      "adress": 2812,
      "xi": 2813,
      "hmen": 2814,
      "hinzufügen": 2815,
      "kö": 2816,
      "genommen": 2817,
      "manage": 2818,
      "endgeräte": 2819,
      "hnt": 2820,
      "verwenden": 2821,
      "innen": 2822,
      "dect": 2823,
      "emp": 2824,
      "ziehen": 2825,
      "nein": 2826,
      "recht": 2827,
      "anschließ": 2828,
      "date": 2829,
      "proto": 2830,
      "head": 2831,
      "klar": 2832,
      "ausgehende": 2833,
      "mehrere": 2834,
      "könnte": 2835,
      "ert": 2836,
      "korrekt": 2837,
      "hören": 2838,
      "cid": 2839,
      "soeben": 2840,
      "schn": 2841,
      "datenschutz": 2842,
      "herz": 2843,
      "zahlen": 2844,
      "bau": 2845,
      "allen": 2846,
      "einstellen": 2847,
      "kundenkonto": 2848,
      "agen": 2849,
      "2b": 2850,
      "alte": 2851,
      "bereit": 2852,
      "freu": 2853,
      "kund": 2854,
      "formular": 2855,
      "verbin": 2856,
      "eingehende": 2857,
      "are": 2858,
      "nis": 2859,
      "\".": 2860,
      "message": 2861,
      "letzten": 2862,
      "funktionieren": 2863,
      "ye": 2864,
      "wochen": 2865,
      "laut": 2866,
      "rest": 2867,
      "gg": 2868,
      "angegeben": 2869,
      "provider": 2870,
      "germany": 2871,
      "fle": 2872,
      "erweiter": 2873,
      "74": 2874,
      "weit": 2875,
      "page": 2876,
      "deinen": 2877,
      "ic": 2878,
      "56": 2879,
      "anleitung": 2880,
      "weder": 2881,
      "please": 2882,
      "vis": 2883,
      "welches": 2884,
      "ven": 2885,
      "unterschie": 2886,
      "bekann": 2887,
      "datei": 2888,
      "sehe": 2889,
      "endgerät": 2890,
      "gewünsch": 2891,
      "cc": 2892,
      "inkl": 2893,
      "artikel": 2894,
      "number": 2895,
      "kostenlo": 2896,
      "mitteilung": 2897,
      "been": 2898,
      "ffe": 2899,
      "verfügbar": 2900,
      "32": 2901,
      "frank": 2902,
      "normal": 2903,
      "wes": 2904,
      "hab": 2905,
      "ausland": 2906,
      "wun": 2907,
      "darf": 2908,
      "digen": 2909,
      "besteht": 2910,
      "beiden": 2911,
      "versucht": 2912,
      "fix": 2913,
      "may": 2914,
      "ved": 2915,
      ").": 2916,
      "indi": 2917,
      "46": 2918,
      "eingerichtet": 2919,
      "aben": 2920,
      "gla": 2921,
      "personen": 2922,
      "lastschrift": 2923,
      "pm": 2924,
      "handelsregister": 2925,
      "ln": 2926,
      "übertragung": 2927,
      "dsl": 2928,
      "genutzt": 2929,
      "kunft": 2930,
      "dokumentation": 2931,
      "zer": 2932,
      "zusätzlich": 2933,
      "va": 2934,
      "deutsche": 2935,
      "goog": 2936,
      "63": 2937,
      "kr": 2938,
      "crm": 2939,
      "conta": 2940,
      "fl": 2941,
      "verifizierungs": 2942,
      "google": 2943,
      "gemacht": 2944,
      "züglich": 2945,
      "erfolgt": 2946,
      "betro": 2947,
      "anmeldung": 2948,
      "irgend": 2949,
      "firma": 2950,
      "während": 2951,
      "bekomme": 2952,
      "anna": 2953,
      "fritzbox": 2954,
      "ki": 2955,
      "bieten": 2956,
      "betroffen": 2957,
      "sollen": 2958,
      "andre": 2959,
      "band": 2960,
      "lation": 2961,
      "liebes": 2962,
      "treten": 2963,
      "innerhalb": 2964,
      "ju": 2965,
      "deta": 2966,
      "spar": 2967,
      "sicherheit": 2968,
      "ierten": 2969,
      "denen": 2970,
      "bed": 2971,
      "mailadresse": 2972,
      "58": 2973,
      "rieben": 2974,
      "++": 2975,
      "fallen": 2976,
      "....": 2977,
      "geschrieben": 2978,
      "wegen": 2979,
      "able": 2980,
      "rechts": 2981,
      "zun": 2982,
      "tsäch": 2983,
      "verein": 2984,
      "sagen": 2985,
      "zugriff": 2986,
      "anzu": 2987,
      "wire": 2988,
      "ards": 2989,
      "micha": 2990,
      "speich": 2991,
      "freuen": 2992,
      "mat": 2993,
      "sig": 2994,
      "bli": 2995,
      "herunter": 2996,
      "deaktivieren": 2997,
      "technik": 2998,
      "allge": 2999,
      "standor": 3000,
      "immt": 3001,
      "juni": 3002,
      "ils": 3003,
      "management": 3004,
      "with": 3005,
      "news": 3006,
      "cu": 3007,
      "besser": 3008,
      "vertrau": 3009,
      "klappt": 3010,
      "läuft": 3011,
      "mt": 3012,
      "zugangsdaten": 3013,
      "lange": 3014,
      "kontakte": 3015,
      "zahlungs": 3016,
      "bleiben": 3017,
      "marcel": 3018,
      "too": 3019,
      "sh": 3020,
      "rüber": 3021,
      "gestern": 3022,
      "fang": 3023,
      "unterschied": 3024,
      "haber": 3025,
      "eigentlich": 3026,
      "gelöst": 3027,
      "kop": 3028,
      "my": 3029,
      "have": 3030,
      "bestätigen": 3031,
      "face": 3032,
      "empfangen": 3033,
      "––": 3034,
      "nes": 3035,
      "fehlen": 3036,
      "telefonat": 3037,
      "89": 3038,
      "vorhan": 3039,
      "main": 3040,
      "tagen": 3041,
      "defin": 3042,
      "ges": 3043,
      "freundliche": 3044,
      "ress": 3045,
      "siehe": 3046,
      "kauf": 3047,
      "besonder": 3048,
      "feed": 3049,
      "häu": 3050,
      "hät": 3051,
      "beachten": 3052,
      "ature": 3053,
      "dest": 3054,
      "phones": 3055,
      "bex": 3056,
      "load": 3057,
      "spartner": 3058,
      "lautet": 3059,
      "schauen": 3060,
      "arbeits": 3061,
      "altet": 3062,
      "angenommen": 3063,
      "dungen": 3064,
      "spä": 3065,
      "verbunden": 3066,
      "schließlich": 3067,
      "indivi": 3068,
      "ische": 3069,
      "individu": 3070,
      "melanie": 3071,
      "gig": 3072,
      "-&": 3073,
      "ink": 3074,
      "abhän": 3075,
      "geräten": 3076,
      "komplett": 3077,
      "flä": 3078,
      "verschlüssel": 3079,
      "rufnummernb": 3080,
      "hinweis": 3081,
      "erei": 3082,
      "car": 3083,
      "dire": 3084,
      "tsächlich": 3085,
      "hört": 3086,
      "michael": 3087,
      "konferenzen": 3088,
      "43": 3089,
      "mf": 3090,
      "einige": 3091,
      "seine": 3092,
      "anschließend": 3093,
      "privat": 3094,
      "febru": 3095,
      "ows": 3096,
      "wind": 3097,
      "rig": 3098,
      "active": 3099,
      "gruß": 3100,
      "progra": 3101,
      "februar": 3102,
      "pake": 3103,
      "häufi": 3104,
      "wechseln": 3105,
      "kontaktieren": 3106,
      "eingestellt": 3107,
      "flexi": 3108,
      "benachrichtig": 3109,
      "59": 3110,
      "teilt": 3111,
      "administ": 3112,
      "wlan": 3113,
      "nebenstelle": 3114,
      "connect": 3115,
      "down": 3116,
      "ssion": 3117,
      "ded": 3118,
      "einzu": 3119,
      "mode": 3120,
      "mobiltelefon": 3121,
      "transfer": 3122,
      "rn": 3123,
      "fri": 3124,
      "feedback": 3125,
      "frie": 3126,
      "47": 3127,
      "regards": 3128,
      "darüber": 3129,
      "zudem": 3130,
      "zeiten": 3131,
      "benötigt": 3132,
      "66": 3133,
      "licher": 3134,
      "schließen": 3135,
      "är": 3136,
      "gesellschaft": 3137,
      "cap": 3138,
      "bast": 3139,
      "here": 3140,
      "geführt": 3141,
      "findet": 3142,
      "unten": 3143,
      "ller": 3144,
      "durchwahl": 3145,
      "webex": 3146,
      "brow": 3147,
      "ci": 3148,
      "anmelden": 3149,
      "mas": 3150,
      "verträge": 3151,
      "lang": 3152,
      "zukommen": 3153,
      "geschi": 3154,
      "browser": 3155,
      "sofern": 3156,
      "davon": 3157,
      "bug": 3158,
      "ine": 3159,
      "screensho": 3160,
      "reicht": 3161,
      "angelegt": 3162,
      "empfänger": 3163,
      "raus": 3164,
      "oben": 3165,
      "anschlü": 3166,
      "fonial": 3167,
      "eingehenden": 3168,
      "smartphone": 3169,
      "ausse": 3170,
      "now": 3171,
      "cker": 3172,
      "taste": 3173,
      "benötige": 3174,
      "scher": 3175,
      "vorwahl": 3176,
      "alternativ": 3177,
      "inhalt": 3178,
      "sonst": 3179,
      "verwendet": 3180,
      "deu": 3181,
      "sweise": 3182,
      "liz": 3183,
      "lte": 3184,
      "gesetzt": 3185,
      "inhaber": 3186,
      "itor": 3187,
      "münchen": 3188,
      "tatsächlich": 3189,
      "gal": 3190,
      "folge": 3191,
      "sub": 3192,
      "technische": 3193,
      "sym": 3194,
      "cha": 3195,
      "don": 3196,
      "antworten": 3197,
      "fläche": 3198,
      "berat": 3199,
      "hot": 3200,
      "karten": 3201,
      "que": 3202,
      "warten": 3203,
      "voraus": 3204,
      "hatten": 3205,
      "unternehmens": 3206,
      "geschickt": 3207,
      "plan": 3208,
      "stag": 3209,
      "besetzt": 3210,
      "internation": 3211,
      "bastian": 3212,
      "verbinden": 3213,
      "fragt": 3214,
      "bas": 3215,
      "vorteile": 3216,
      "ku": 3217,
      "möglichkeiten": 3218,
      "welt": 3219,
      "windows": 3220,
      "54": 3221,
      "umstellung": 3222,
      "feature": 3223,
      "bezüglich": 3224,
      "blick": 3225,
      "empfang": 3226,
      "igkeiten": 3227,
      "versand": 3228,
      "ober": 3229,
      "chte": 3230,
      "erstellt": 3231,
      "hiermit": 3232,
      "christian": 3233,
      "sodass": 3234,
      "nung": 3235,
      "schrieben": 3236,
      "registriert": 3237,
      "ef": 3238,
      "gebur": 3239,
      "heim": 3240,
      "voda": 3241,
      "woche": 3242,
      "techno": 3243,
      "over": 3244,
      "prüf": 3245,
      "====": 3246,
      "51": 3247,
      "mitglieder": 3248,
      "telefonate": 3249,
      "aktuelle": 3250,
      "mlich": 3251,
      "stef": 3252,
      "tisch": 3253,
      "welcher": 3254,
      "79": 3255,
      "worden": 3256,
      "obwohl": 3257,
      "lösungen": 3258,
      "ersten": 3259,
      "xy": 3260,
      "nächsten": 3261,
      "bankverbindung": 3262,
      "homepage": 3263,
      "danach": 3264,
      "sc": 3265,
      "text": 3266,
      "erfa": 3267,
      "fragte": 3268,
      "gesprächs": 3269,
      "030": 3270,
      "comm": 3271,
      "ihm": 3272,
      "rückruf": 3273,
      "storn": 3274,
      "ggf": 3275,
      "halte": 3276,
      "bestellen": 3277,
      "geschaltet": 3278,
      "sit": 3279,
      "that": 3280,
      "angemeldet": 3281,
      "geburts": 3282,
      "a8": 3283,
      "mburg": 3284,
      "gefü": 3285,
      "ish": 3286,
      "ban": 3287,
      "kommunikations": 3288,
      "hinterlegen": 3289,
      "aktuellen": 3290,
      "itte": 3291,
      "könnt": 3292,
      "entsprechend": 3293,
      "stehe": 3294,
      "alink": 3295,
      "iere": 3296,
      "vodafone": 3297,
      "sebastian": 3298,
      "site": 3299,
      "letzter": 3300,
      "laufen": 3301,
      "alisiert": 3302,
      "tim": 3303,
      "eigene": 3304,
      "kredit": 3305,
      "gebühr": 3306,
      "brei": 3307,
      "geburtsdatum": 3308,
      "mand": 3309,
      "button": 3310,
      "off": 3311,
      "portiert": 3312,
      "78": 3313,
      "frist": 3314,
      "grö": 3315,
      "fel": 3316,
      "gün": 3317,
      "oft": 3318,
      "computer": 3319,
      "42": 3320,
      "personal": 3321,
      "erforder": 3322,
      "pflich": 3323,
      "herstell": 3324,
      "gleichen": 3325,
      "hol": 3326,
      "moment": 3327,
      "angebot": 3328,
      "cher": 3329,
      "our": 3330,
      "schle": 3331,
      "manuell": 3332,
      "cp": 3333,
      "=%": 3334,
      "stens": 3335,
      "wirklich": 3336,
      "symbo": 3337,
      "pdf": 3338,
      "entschul": 3339,
      "außerdem": 3340,
      "erstat": 3341,
      "erledi": 3342,
      "allation": 3343,
      "aufgrund": 3344,
      "dienste": 3345,
      "wirecloud": 3346,
      "beispie": 3347,
      "vorhanden": 3348,
      "cor": 3349,
      "schir": 3350,
      "merk": 3351,
      "cs": 3352,
      "fur": 3353,
      "faxe": 3354,
      "erstellen": 3355,
      "displa": 3356,
      "af": 3357,
      "display": 3358,
      "montag": 3359,
      "uar": 3360,
      "nett": 3361,
      "tiert": 3362,
      "hierzu": 3363,
      "dt": 3364,
      "ug": 3365,
      "zeitig": 3366,
      "konnten": 3367,
      "haft": 3368,
      "ischen": 3369,
      "entschei": 3370,
      "führung": 3371,
      "use": 3372,
      "koll": 3373,
      "enthalten": 3374,
      "brauche": 3375,
      "kurze": 3376,
      "oren": 3377,
      "accountverwaltung": 3378,
      "änderungen": 3379,
      "verifiziert": 3380,
      "startet": 3381,
      "ützt": 3382,
      "auszug": 3383,
      "network": 3384,
      "klingel": 3385,
      "april": 3386,
      "bc": 3387,
      "heits": 3388,
      "firm": 3389,
      "schönen": 3390,
      "deiner": 3391,
      "deaktiviert": 3392,
      "nachweis": 3393,
      "super": 3394,
      "calls": 3395,
      "raum": 3396,
      "tent": 3397,
      "sent": 3398,
      "schnelle": 3399,
      "kundin": 3400,
      "moder": 3401,
      "beide": 3402,
      "sowohl": 3403,
      "höhe": 3404,
      "ging": 3405,
      "deshalb": 3406,
      "sprache": 3407,
      "yealink": 3408,
      "win": 3409,
      "nochmals": 3410,
      "notwen": 3411,
      "falsch": 3412,
      "57": 3413,
      "lösch": 3414,
      "integr": 3415,
      "virtuelle": 3416,
      "day": 3417,
      "aussetz": 3418,
      "ren": 3419,
      "januar": 3420,
      "fäh": 3421,
      "tcha": 3422,
      "zen": 3423,
      "stmöglich": 3424,
      "verwende": 3425,
      "anschrift": 3426,
      "llt": 3427,
      "xxxx": 3428,
      "zz": 3429,
      "api": 3430,
      "vertrieb": 3431,
      "wand": 3432,
      "sales": 3433,
      "wunsch": 3434,
      "giga": 3435,
      "website": 3436,
      "installation": 3437,
      "hersteller": 3438,
      "jahr": 3439,
      "oper": 3440,
      "gnis": 3441,
      "tem": 3442,
      "confi": 3443,
      "weiß": 3444,
      "authen": 3445,
      "gesetz": 3446,
      "att": 3447,
      "iat": 3448,
      "res": 3449,
      "simkarte": 3450,
      "basic": 3451,
      "zukunft": 3452,
      "auswählen": 3453,
      "tipp": 3454,
      "ften": 3455,
      "hamburg": 3456,
      "weiterleiten": 3457,
      "thomas": 3458,
      "ios": 3459,
      "agent": 3460,
      "äu": 3461,
      "acher": 3462,
      "neuer": 3463,
      "häufig": 3464,
      "tasten": 3465,
      "way": 3466,
      "hardware": 3467,
      "kostet": 3468,
      "schnitt": 3469,
      "anzahl": 3470,
      "rtp": 3471,
      "mut": 3472,
      "wählt": 3473,
      "heraus": 3474,
      "ry": 3475,
      "verfahren": 3476,
      "ereignis": 3477,
      "brauchen": 3478,
      "get": 3479,
      "\",": 3480,
      "allgemeine": 3481,
      "angesch": 3482,
      "2ecom": 3483,
      "herunterladen": 3484,
      "bearbeiten": 3485,
      "llo": 3486,
      "bleibt": 3487,
      "informieren": 3488,
      "gewer": 3489,
      "folgt": 3490,
      "update": 3491,
      "lediglich": 3492,
      "freigabe": 3493,
      "beratung": 3494,
      "gute": 3495,
      "53": 3496,
      "erfahren": 3497,
      "juli": 3498,
      "dadurch": 3499,
      "mals": 3500,
      "trunking": 3501,
      "bildschir": 3502,
      "m_": 3503,
      "versuchen": 3504,
      "cag": 3505,
      "prüfung": 3506,
      "einstellung": 3507,
      "ies": 3508,
      "starter": 3509,
      "mittler": 3510,
      "rufnummernblock": 3511,
      "öffent": 3512,
      "stru": 3513,
      "ument": 3514,
      "waren": 3515,
      "jeden": 3516,
      "anzeige": 3517,
      "kostenlose": 3518,
      "kg": 3519,
      "vergeben": 3520,
      "dial": 3521,
      "arbeitet": 3522,
      "unterstützung": 3523,
      "gigaset": 3524,
      "schön": 3525,
      "passiert": 3526,
      "2023": 3527,
      "ivr": 3528,
      "programm": 3529,
      "gesagt": 3530,
      "gewünscht": 3531,
      "ol": 3532,
      "wert": 3533,
      "unterhaltung": 3534,
      "spr": 3535,
      "tter": 3536,
      "2eactive": 3537,
      "pakete": 3538,
      "2eactivehosted": 3539,
      "pra": 3540,
      "mitte": 3541,
      "schritt": 3542,
      "jeweili": 3543,
      "reifen": 3544,
      "caglar": 3545,
      "aktu": 3546,
      "zwar": 3547,
      "gener": 3548,
      "pc": 3549,
      "hätte": 3550,
      "52": 3551,
      "uf": 3552,
      "rund": 3553,
      "time": 3554,
      "nachrichten": 3555,
      "ingt": 3556,
      "look": 3557,
      "cti": 3558,
      "versuche": 3559,
      "freit": 3560,
      "gil": 3561,
      "ausschließlich": 3562,
      "stre": 3563,
      "gab": 3564,
      "rein": 3565,
      "book": 3566,
      "verschiedene": 3567,
      "verlänger": 3568,
      ".-": 3569,
      "ansprech": 3570,
      "fu": 3571,
      "lass": 3572,
      "trotzdem": 3573,
      "68": 3574,
      "——": 3575,
      "verifizieren": 3576,
      "glo": 3577,
      "fehlermeldung": 3578,
      "beantworter": 3579,
      "gladb": 3580,
      "visitor": 3581,
      "gehend": 3582,
      "ktur": 3583,
      "modu": 3584,
      "klick": 3585,
      "paar": 3586,
      "grenz": 3587,
      "kollegin": 3588,
      "gän": 3589,
      "free": 3590,
      "captcha": 3591,
      "mails": 3592,
      "friend": 3593,
      "services": 3594,
      "gemeinsam": 3595,
      "versenden": 3596,
      "auswahl": 3597,
      "schw": 3598,
      "zentrale": 3599,
      "what": 3600,
      "verbindungen": 3601,
      "screenshot": 3602,
      "beschrei": 3603,
      "unabhän": 3604,
      "anrufbeantworter": 3605,
      "freitag": 3606,
      "70": 3607,
      "deutet": 3608,
      "bildschirm": 3609,
      "kat": 3610,
      "alex": 3611,
      "iban": 3612,
      "andreas": 3613,
      "ansprechpartner": 3614,
      "voraussetz": 3615,
      "furt": 3616,
      "plus": 3617,
      "deinem": 3618,
      "lf": 3619,
      "kan": 3620,
      "ordn": 3621,
      "noti": 3622,
      "ele": 3623,
      "thi": 3624,
      "leistungs": 3625,
      "pan": 3626,
      "engl": 3627,
      "mac": 3628,
      "bedien": 3629,
      "trunks": 3630,
      "bind": 3631,
      "ehmen": 3632,
      "sieht": 3633,
      "int": 3634,
      "hc": 3635,
      "einsatz": 3636,
      "sprü": 3637,
      "angepasst": 3638,
      "friendly": 3639,
      "protokoll": 3640,
      "schaltung": 3641,
      "erreichbarkeit": 3642,
      "wünsche": 3643,
      "maxim": 3644,
      "suchen": 3645,
      "bekannt": 3646,
      "lok": 3647,
      "mana": 3648,
      "ident": 3649,
      "konfigurieren": 3650,
      "technolog": 3651,
      "ction": 3652,
      "sicherheits": 3653,
      "zwe": 3654,
      "jeder": 3655,
      "wider": 3656,
      "geehrter": 3657,
      "friendlycaptcha": 3658,
      "69": 3659,
      "gest": 3660,
      "bearbeitung": 3661,
      "########": 3662,
      "sekunden": 3663,
      "200": 3664,
      "bri": 3665,
      "gesehen": 3666,
      "vorgang": 3667,
      "gilt": 3668,
      "profil": 3669,
      "www": 3670,
      "kommentar": 3671,
      "basis": 3672,
      "schä": 3673,
      "betrei": 3674,
      "deutsch": 3675,
      "rele": 3676,
      "nachdem": 3677,
      "adressen": 3678,
      "list": 3679,
      "digital": 3680,
      "beispiele": 3681,
      "dlich": 3682,
      "nebenstellen": 3683,
      "schrän": 3684,
      "hinterlegte": 3685,
      "meeting": 3686,
      "wieso": 3687,
      "!!": 3688,
      "),": 3689,
      "rochen": 3690,
      "sperr": 3691,
      "nä": 3692,
      "hilft": 3693,
      "ausgehenden": 3694,
      "günst": 3695,
      "überall": 3696,
      "utc": 3697,
      "bittet": 3698,
      "ereignisliste": 3699,
      "beg": 3700,
      "#:": 3701,
      "dür": 3702,
      "erste": 3703,
      "bedeutet": 3704,
      "ihn": 3705,
      "angebo": 3706,
      "kommuniz": 3707,
      "läss": 3708,
      "entsprechende": 3709,
      "wähl": 3710,
      "2022": 3711,
      "letzte": 3712,
      "gebühren": 3713,
      "tifizierung": 3714,
      "bb": 3715,
      "stad": 3716,
      "utm_": 3717,
      "har": 3718,
      "telefons": 3719,
      "mögl": 3720,
      "volumen": 3721,
      "beispielsweise": 3722,
      "klingeln": 3723,
      "manager": 3724,
      "drücken": 3725,
      "überprüfen": 3726,
      "fert": 3727,
      "headset": 3728,
      "bist": 3729,
      "ichten": 3730,
      "anforder": 3731,
      "zeichen": 3732,
      "wünschen": 3733,
      "kreditkarte": 3734,
      "offenen": 3735,
      "kten": 3736,
      "anrufs": 3737,
      "interne": 3738,
      "bor": 3739,
      "prob": 3740,
      "nutzt": 3741,
      "gesperr": 3742,
      "schwei": 3743,
      "verbindungs": 3744,
      "nennen": 3745,
      "möglicht": 3746,
      "festgestellt": 3747,
      "müsste": 3748,
      "80": 3749,
      "ermöglicht": 3750,
      "gefunden": 3751,
      "weile": 3752,
      "o2": 3753,
      "eingetragen": 3754,
      "bandbrei": 3755,
      "jen": 3756,
      "jedem": 3757,
      "aktivierung": 3758,
      "analy": 3759,
      "standorte": 3760,
      "gladbacher": 3761,
      "seiten": 3762,
      "recei": 3763,
      "kir": 3764,
      "businesskommunikation": 3765,
      "dy": 3766,
      "genannten": 3767,
      "mmer": 3768,
      "lage": 3769,
      "logs": 3770,
      "english": 3771,
      "dessen": 3772,
      "zunäch": 3773,
      "zunächst": 3774,
      "gebe": 3775,
      "elt": 3776,
      "peop": 3777,
      "schade": 3778,
      "telefonen": 3779,
      "ah": 3780,
      "lösen": 3781,
      "weisung": 3782,
      "infos": 3783,
      "erledigt": 3784,
      "people": 3785,
      "erlau": 3786,
      "lege": 3787,
      "vorab": 3788,
      "ator": 3789,
      "anschlüsse": 3790,
      "cy": 3791,
      "alisierung": 3792,
      "alternative": 3793,
      "communi": 3794,
      "mobilfunknetz": 3795,
      "unterstützt": 3796,
      "kür": 3797,
      "hinterlegten": 3798,
      "offline": 3799,
      "löschung": 3800,
      "öffnen": 3801,
      "\\\\": 3802,
      "mart": 3803,
      "hoben": 3804,
      "hoffe": 3805,
      "meines": 3806,
      "standen": 3807,
      "entsprechenden": 3808,
      "san": 3809,
      "richtige": 3810,
      "bezeich": 3811,
      "wahr": 3812,
      "gleichzeitig": 3813,
      "bert": 3814,
      "wegs": 3815,
      "donner": 3816,
      "eingeben": 3817,
      "ausweis": 3818,
      "eigenen": 3819,
      "stein": 3820,
      "links": 3821,
      "mez": 3822,
      "speichern": 3823,
      "gestartet": 3824,
      "ingend": 3825,
      "ject": 3826,
      "tungs": 3827,
      "tarife": 3828,
      "donnerstag": 3829,
      "eren": 3830,
      "kabel": 3831,
      "ia": 3832,
      "zahlt": 3833,
      "struktur": 3834,
      "stadt": 3835,
      "pati": 3836,
      "betroffene": 3837,
      "habt": 3838,
      "künf": 3839,
      "prüft": 3840,
      "länger": 3841,
      "gründen": 3842,
      "devi": 3843,
      "ruch": 3844,
      "glichen": 3845,
      "berechnet": 3846,
      "ass": 3847,
      "pau": 3848,
      "gespeich": 3849,
      "schickt": 3850,
      "behalten": 3851,
      "unterwegs": 3852,
      "itten": 3853,
      "notes": 3854,
      "peter": 3855,
      "verschiedenen": 3856,
      "schlei": 3857,
      "analo": 3858,
      "dige": 3859,
      "monatlich": 3860,
      "behe": 3861,
      "eig": 3862,
      "einander": 3863,
      "woch": 3864,
      "etc": 3865,
      "deutschen": 3866,
      "gü": 3867,
      "gesamt": 3868,
      "bezogen": 3869,
      "geschlagen": 3870,
      "pn": 3871,
      "gemäß": 3872,
      "angaben": 3873,
      "mailbox": 3874,
      "vio": 3875,
      "error": 3876,
      "64": 3877,
      "zess": 3878,
      "registergericht": 3879,
      "hotline": 3880,
      "bindung": 3881,
      "mie": 3882,
      "belie": 3883,
      "llig": 3884,
      "profi": 3885,
      "mittwoch": 3886,
      "zusätzliche": 3887,
      "direct": 3888,
      "freue": 3889,
      "dokument": 3890,
      "communication": 3891,
      "kü": 3892,
      "bestätigt": 3893,
      "inten": 3894,
      "jeweiligen": 3895,
      "erhält": 3896,
      "new": 3897,
      "vornehmen": 3898,
      "download": 3899,
      "nö": 3900,
      "ps": 3901,
      "hanna": 3902,
      "grundgebühr": 3903,
      "gesperrt": 3904,
      "red": 3905,
      "kennen": 3906,
      "gewerbe": 3907,
      "ursach": 3908,
      "jah": 3909,
      "handbuch": 3910,
      "prä": 3911,
      "rt": 3912,
      "bevor": 3913,
      "nisse": 3914,
      "lehnt": 3915,
      "ments": 3916,
      "hierbei": 3917,
      "freigegeben": 3918,
      "abb": 3919,
      "gewo": 3920,
      "ßt": 3921,
      "wenden": 3922,
      "sult": 3923,
      "bekommt": 3924,
      "welchen": 3925,
      "paralle": 3926,
      "verifizierungscode": 3927,
      "a8a": 3928,
      "mittelt": 3929,
      "gehört": 3930,
      "neuigkeiten": 3931,
      "dnis": 3932,
      "registrierung": 3933,
      "bestimmt": 3934,
      "mw": 3935,
      "kostenpflich": 3936,
      "bun": 3937,
      "mitteilen": 3938,
      "gateway": 3939,
      "ordnung": 3940,
      "lite": 3941,
      "empfehlen": 3942,
      "ker": 3943,
      "73": 3944,
      "ee": 3945,
      "dis": 3946,
      "ausgehend": 3947,
      "keiner": 3948,
      "ssten": 3949,
      "komp": 3950,
      "preise": 3951,
      "muster": 3952,
      "umfang": 3953,
      "abo": 3954,
      "aufgeladen": 3955,
      "notwendig": 3956,
      "verz": 3957,
      "mittlung": 3958,
      "wahlen": 3959,
      "verständnis": 3960,
      "bz": 3961,
      "col": 3962,
      "umleitung": 3963,
      "sonsten": 3964,
      "beschreibung": 3965,
      "65": 3966,
      "rücklastschrift": 3967,
      "müssten": 3968,
      "ansonsten": 3969,
      "jede": 3970,
      "content": 3971,
      "syn": 3972,
      "externe": 3973,
      "hu": 3974,
      "eintrag": 3975,
      "entweder": 3976,
      "tial": 3977,
      "suche": 3978,
      "datenvolumen": 3979,
      "vertrauliche": 3980,
      "gefügt": 3981,
      "fft": 3982,
      "indem": 3983,
      "pat": 3984,
      "emailadresse": 3985,
      "peoplefone": 3986,
      "bra": 3987,
      "schnellstmöglich": 3988,
      "rechtlich": 3989,
      "softphones": 3990,
      "details": 3991,
      "wig": 3992,
      "ations": 3993,
      "dokumente": 3994,
      "licht": 3995,
      "gb": 3996,
      "arch": 3997,
      "verarbeitung": 3998,
      "proje": 3999,
      "nt": 4000,
      "weiterleitungen": 4001,
      "outlook": 4002,
      "mp": 4003,
      "75": 4004,
      "egal": 4005,
      "vertragsdaten": 4006,
      "jeweils": 4007,
      "usi": 4008,
      "unterlagen": 4009,
      "minde": 4010,
      "000": 4011,
      "anders": 4012,
      "mitge": 4013,
      "möglichen": 4014,
      "geber": 4015,
      "hierfür": 4016,
      "handynummer": 4017,
      "quest": 4018,
      "fy": 4019,
      "gewünschte": 4020,
      "cal": 4021,
      "finanz": 4022,
      "freundlich": 4023,
      "frü": 4024,
      "abgeschlossen": 4025,
      "contact": 4026,
      "jahren": 4027,
      "dienstag": 4028,
      "hd": 4029,
      "einführung": 4030,
      "fällen": 4031,
      "geld": 4032,
      "installiert": 4033,
      "custo": 4034,
      "mfg": 4035,
      "telefoniert": 4036,
      "übernehmen": 4037,
      "98": 4038,
      "abgelehnt": 4039,
      "dauert": 4040,
      "fit": 4041,
      "cess": 4042,
      "bilität": 4043,
      "tor": 4044,
      "verwendete": 4045,
      "3c": 4046,
      "auss": 4047,
      "gewünschten": 4048,
      "kehr": 4049,
      "anfragen": 4050,
      "erforderlich": 4051,
      "mesz": 4052,
      "jemand": 4053,
      "interess": 4054,
      "ielt": 4055,
      "anbieten": 4056,
      "hle": 4057,
      "mehrfach": 4058,
      "events": 4059,
      "mittlerweile": 4060,
      "fc": 4061,
      "customer": 4062,
      "bedarf": 4063,
      "daran": 4064,
      "stimmt": 4065,
      "profe": 4066,
      "baren": 4067,
      "möchtest": 4068,
      "kopie": 4069,
      "mitnahme": 4070,
      "gliche": 4071,
      "optionen": 4072,
      "tiger": 4073,
      "veranla": 4074,
      "okay": 4075,
      "bestehenden": 4076,
      "alt": 4077,
      "soweit": 4078,
      "fire": 4079,
      "provision": 4080,
      "erklärt": 4081,
      "knü": 4082,
      "martin": 4083,
      "mindestens": 4084,
      "erreicht": 4085,
      "sendung": 4086,
      "rückfrage": 4087,
      "entschuldigen": 4088,
      "ssi": 4089,
      "liver": 4090,
      "artic": 4091,
      "bundes": 4092,
      "entgegen": 4093,
      "internetverbindung": 4094,
      "subject": 4095,
      "reser": 4096,
      "gutschrift": 4097,
      "blf": 4098,
      "cur": 4099,
      "ied": 4100,
      "bach": 4101,
      "ition": 4102,
      "import": 4103,
      "dern": 4104,
      "uellen": 4105,
      "restguthaben": 4106,
      "berei": 4107,
      "später": 4108,
      "bound": 4109,
      "webseite": 4110,
      "whats": 4111,
      "unbe": 4112,
      "köln": 4113,
      "cial": 4114,
      "lg": 4115,
      "abgebucht": 4116,
      "sprün": 4117,
      "sport": 4118,
      "bewer": 4119,
      "funktions": 4120,
      "articles": 4121,
      "ück": 4122,
      "rator": 4123,
      "confiden": 4124,
      "itä": 4125,
      "durchgeführt": 4126,
      "dennoch": 4127,
      "ummer": 4128,
      "leistungen": 4129,
      "seiner": 4130,
      "mitnehmen": 4131,
      "mul": 4132,
      "oo": 4133,
      "gew": 4134,
      "facebook": 4135,
      "220": 4136,
      "verge": 4137,
      "mittag": 4138,
      "grundsätz": 4139,
      "verknü": 4140,
      "reiche": 4141,
      "persönliche": 4142,
      "::": 4143,
      "bean": 4144,
      "vorherigen": 4145,
      "ater": 4146,
      "io": 4147,
      "welchem": 4148,
      "address": 4149,
      "bandbreite": 4150,
      "befindet": 4151,
      "verstehe": 4152,
      "homeoffice": 4153,
      "hub": 4154,
      "erweise": 4155,
      "sett": 4156,
      "zusammenarbeit": 4157,
      "sinn": 4158,
      "a9": 4159,
      "jedes": 4160,
      "gegenüber": 4161,
      "weiterlesen": 4162,
      "meetings": 4163,
      "frankfurt": 4164,
      "fakt": 4165,
      "wall": 4166,
      "media": 4167,
      "yste": 4168,
      "──": 4169,
      "lieben": 4170,
      "verbr": 4171,
      "ganze": 4172,
      "vollständig": 4173,
      "anpassen": 4174,
      "fixed": 4175,
      "letter": 4176,
      "groß": 4177,
      "aaaa": 4178,
      "stefan": 4179,
      "tut": 4180,
      "ursprün": 4181,
      "benötig": 4182,
      "warteschlei": 4183,
      "av": 4184,
      "intere": 4185,
      "stream": 4186,
      "private": 4187,
      ".&": 4188,
      "tern": 4189,
      "cj": 4190,
      "vergleich": 4191,
      "allem": 4192,
      "sprachqualität": 4193,
      "change": 4194,
      "beschrieben": 4195,
      "quad": 4196,
      "uld": 4197,
      "gaben": 4198,
      "premi": 4199,
      "geschäftsführung": 4200,
      "fik": 4201,
      "problemlos": 4202,
      "erhalte": 4203,
      "kompati": 4204,
      "herrn": 4205,
      "stoßen": 4206,
      "daniel": 4207,
      "kennt": 4208,
      "ason": 4209,
      "exist": 4210,
      "erneu": 4211,
      "tritt": 4212,
      "anderes": 4213,
      "verwalten": 4214,
      "px": 4215,
      "posten": 4216,
      "mobilrufnummer": 4217,
      "features": 4218,
      "systeme": 4219,
      "begin": 4220,
      "hinweise": 4221,
      "whatsapp": 4222,
      "versicher": 4223,
      "sik": 4224,
      "unabhängig": 4225,
      "bla": 4226,
      "angekommen": 4227,
      "alexander": 4228,
      "dd": 4229,
      "stu": 4230,
      "versuch": 4231,
      "öffnet": 4232,
      "confidential": 4233,
      "ide": 4234,
      "technologie": 4235,
      "lag": 4236,
      "kostenfrei": 4237,
      "––––": 4238,
      "kommunizieren": 4239,
      "nd": 4240,
      "stunden": 4241,
      "desktop": 4242,
      "frieden": 4243,
      "multi": 4244,
      "seits": 4245,
      "entscheiden": 4246,
      "gespeichert": 4247,
      "ans": 4248,
      "informiert": 4249,
      "aktion": 4250,
      "strom": 4251,
      "ae": 4252,
      "0211": 4253,
      "ill": 4254,
      "gedu": 4255,
      "mitglied": 4256,
      "inklusi": 4257,
      "67": 4258,
      "84": 4259,
      "apps": 4260,
      "vergessen": 4261,
      "telefonbuch": 4262,
      "seifert": 4263,
      "individue": 4264,
      "tg": 4265,
      "fehlgeschlagen": 4266,
      "bücher": 4267,
      "thank": 4268,
      "61": 4269,
      "schluss": 4270,
      "proxy": 4271,
      "monats": 4272,
      "symbole": 4273,
      "leben": 4274,
      "apple": 4275,
      "mobilen": 4276,
      "gleiche": 4277,
      "vin": 4278,
      "organ": 4279,
      "mobilfunknummer": 4280,
      "verschlüsselung": 4281,
      "verstanden": 4282,
      "bs": 4283,
      "yer": 4284,
      "konkre": 4285,
      "anzeigen": 4286,
      "coll": 4287,
      "vorgenommen": 4288,
      "fenster": 4289,
      "py": 4290,
      "herzliche": 4291,
      "entfer": 4292,
      "scheid": 4293,
      "grundsätzlich": 4294,
      "hy": 4295,
      "aw": 4296,
      "geladen": 4297,
      "umzug": 4298,
      "klo": 4299,
      "maß": 4300,
      "platz": 4301,
      "einsehen": 4302,
      "eingabe": 4303,
      "technischen": 4304,
      "store": 4305,
      "registrieren": 4306,
      "ationen": 4307,
      "221": 4308,
      "verständlich": 4309,
      "quadrat": 4310,
      "c3": 4311,
      "seinen": 4312,
      "umsatz": 4313,
      "aging": 4314,
      "firmware": 4315,
      "agentur": 4316,
      "mus": 4317,
      "behoben": 4318,
      "rahmen": 4319,
      "zweite": 4320,
      "9999": 4321,
      "intended": 4322,
      "splatz": 4323,
      "besondere": 4324,
      "ance": 4325,
      "zugewiesen": 4326,
      "einigen": 4327,
      "folgendes": 4328,
      "bisherigen": 4329,
      "effiz": 4330,
      "abzu": 4331,
      "abil": 4332,
      "mehreren": 4333,
      "hilfecenter": 4334,
      "einzelnen": 4335,
      "zweiten": 4336,
      "personenbezogen": 4337,
      "buchhaltung": 4338,
      "tools": 4339,
      "gegangen": 4340,
      "scheinen": 4341,
      "val": 4342,
      "testet": 4343,
      "infra": 4344,
      "tten": 4345,
      "char": 4346,
      "ffer": 4347,
      "installieren": 4348,
      "abend": 4349,
      "sogar": 4350,
      "überweisung": 4351,
      "woran": 4352,
      "startcode": 4353,
      "d7": 4354,
      "request": 4355,
      "administrator": 4356,
      "zufrieden": 4357,
      "lig": 4358,
      "anwendung": 4359,
      "lizenz": 4360,
      "authentifizierung": 4361,
      "tcp": 4362,
      "erhö": 4363,
      "basisst": 4364,
      "bestimmten": 4365,
      "tri": 4366,
      "berger": 4367,
      "dringend": 4368,
      "verloren": 4369,
      "moin": 4370,
      "aufgetreten": 4371,
      "mitgeteilt": 4372,
      "500": 4373,
      "ktiv": 4374,
      "fehlt": 4375,
      "entfernen": 4376,
      "zugestellt": 4377,
      "board": 4378,
      "feststellen": 4379,
      "markt": 4380,
      "uhrzeit": 4381,
      "markus": 4382,
      "uk": 4383,
      "heißt": 4384,
      "auszu": 4385,
      "anwendungen": 4386,
      "enthält": 4387,
      "benachrichtigung": 4388,
      "logi": 4389,
      "table": 4390,
      "profit": 4391,
      "forderung": 4392,
      "hein": 4393,
      "wil": 4394,
      "wach": 4395,
      "überweisen": 4396,
      "format": 4397,
      "domain": 4398,
      "hause": 4399,
      "low": 4400,
      "dürfen": 4401,
      "settings": 4402,
      "telefonnummern": 4403,
      "modell": 4404,
      "inklusive": 4405,
      "seinem": 4406,
      "handbücher": 4407,
      "wohn": 4408,
      "sparen": 4409,
      "device": 4410,
      "4b": 4411,
      "nils": 4412,
      "verläss": 4413,
      "voraussetzungen": 4414,
      "ky": 4415,
      "thor": 4416,
      "korrig": 4417,
      "umgehend": 4418,
      "has": 4419,
      "forwar": 4420,
      "richtigen": 4421,
      "mittels": 4422,
      "wege": 4423,
      "posit": 4424,
      "drucken": 4425,
      "kennung": 4426,
      "springen": 4427,
      "bzgl": 4428,
      ":&": 4429,
      "iti": 4430,
      "separ": 4431,
      "contro": 4432,
      "genannte": 4433,
      "ient": 4434,
      "pas": 4435,
      "teile": 4436,
      "alisieren": 4437,
      "korre": 4438,
      "portierungsauftrag": 4439,
      "del": 4440,
      "verantwort": 4441,
      "url": 4442,
      "wahrschein": 4443,
      "mik": 4444,
      "oliver": 4445,
      "dia": 4446,
      "musik": 4447,
      "unterstützen": 4448,
      "hello": 4449,
      "braucht": 4450,
      "premium": 4451,
      "weiterhelfen": 4452,
      "etwa": 4453,
      "anbindung": 4454,
      "hinzugefügt": 4455,
      "dauern": 4456,
      "zweck": 4457,
      "sdata": 4458,
      "immen": 4459,
      "zeu": 4460,
      "spon": 4461,
      "abrechnung": 4462,
      "gor": 4463,
      "erfolgen": 4464,
      "idnr": 4465,
      "networks": 4466,
      "pin": 4467,
      "erinner": 4468,
      "ital": 4469,
      "089": 4470,
      "oberfläche": 4471,
      "erscheint": 4472,
      "durchführen": 4473,
      "darum": 4474,
      "geduld": 4475,
      "sab": 4476,
      "öster": 4477,
      "beauf": 4478,
      "angeschaut": 4479,
      "zusenden": 4480,
      "insgesamt": 4481,
      "vertraulich": 4482,
      "erfasste": 4483,
      "nimmt": 4484,
      "abbuchung": 4485,
      "fied": 4486,
      "bestand": 4487,
      "meisten": 4488,
      "benachrichtigungen": 4489,
      "cer": 4490,
      "fb": 4491,
      "ite": 4492,
      "jun": 4493,
      "wochenende": 4494,
      "kind": 4495,
      "vari": 4496,
      "orig": 4497,
      "gie": 4498,
      "dele": 4499,
      "act": 4500,
      "benutzen": 4501,
      "klären": 4502,
      "dc": 4503,
      "tk": 4504,
      "hinaus": 4505,
      "reserved": 4506,
      "bescheid": 4507,
      "ssar": 4508,
      "ssyste": 4509,
      "arbeitsplatz": 4510,
      "erklären": 4511,
      "länder": 4512,
      "other": 4513,
      "anmelde": 4514,
      "ember": 4515,
      "telefax": 4516,
      "chron": 4517,
      "ili": 4518,
      "kanä": 4519,
      "zt": 4520,
      "perfe": 4521,
      "bestimmte": 4522,
      "schweiz": 4523,
      "gül": 4524,
      "wahrscheinlich": 4525,
      "xis": 4526,
      "anhän": 4527,
      "deren": 4528,
      "bestätig": 4529,
      "konfiguriert": 4530,
      "origin": 4531,
      "gs": 4532,
      "mid": 4533,
      "webphone": 4534,
      "momentan": 4535,
      "mäßig": 4536,
      "zukünf": 4537,
      "verhalten": 4538,
      "rufumleitung": 4539,
      "klass": 4540,
      "eventuell": 4541,
      "organis": 4542,
      "überblick": 4543,
      "live": 4544,
      "geschütz": 4545,
      "österreich": 4546,
      "mari": 4547,
      "prozess": 4548,
      "modus": 4549,
      "anfang": 4550,
      "ended": 4551,
      "geklappt": 4552,
      "kombin": 4553,
      "allnet": 4554,
      "einzelne": 4555,
      "chten": 4556,
      "stei": 4557,
      "versendet": 4558,
      "durchwahlen": 4559,
      "sty": 4560,
      "kündigungs": 4561,
      "solche": 4562,
      "entwickler": 4563,
      "gvo": 4564,
      "zuweisen": 4565,
      "faq": 4566,
      "bestehende": 4567,
      "inger": 4568,
      "strasse": 4569,
      "hängt": 4570,
      "glossar": 4571,
      "bess": 4572,
      "extern": 4573,
      "hoff": 4574,
      "zep": 4575,
      "große": 4576,
      "040": 4577,
      "tragt": 4578,
      "open": 4579,
      "erstmal": 4580,
      "pfen": 4581,
      "bran": 4582,
      "lü": 4583,
      "zeigen": 4584,
      "nahmen": 4585,
      "sperren": 4586,
      "firewall": 4587,
      "schau": 4588,
      "integrationen": 4589,
      "besonders": 4590,
      "->": 4591,
      "genere": 4592,
      "beruf": 4593,
      "wenig": 4594,
      "sichtlich": 4595,
      "leistung": 4596,
      "unde": 4597,
      "zustellen": 4598,
      "onen": 4599,
      "upda": 4600,
      "transport": 4601,
      "verbrauch": 4602,
      "aufnahme": 4603,
      "key": 4604,
      "vg": 4605,
      "stele": 4606,
      "entstehen": 4607,
      "bare": 4608,
      "betreiber": 4609,
      "tete": 4610,
      "ign": 4611,
      "helpdesk": 4612,
      "geschützte": 4613,
      "wesen": 4614,
      "digung": 4615,
      "sitzen": 4616,
      "überhaupt": 4617,
      "binden": 4618,
      "market": 4619,
      "dist": 4620,
      "getestet": 4621,
      "zuverläss": 4622,
      "greifen": 4623,
      "monatliche": 4624,
      "++++": 4625,
      "infrastruktur": 4626,
      "wichtige": 4627,
      "virtuellen": 4628,
      "thias": 4629,
      "weshalb": 4630,
      "85": 4631,
      "eingang": 4632,
      "beleg": 4633,
      "entfern": 4634,
      "station": 4635,
      "aufzeich": 4636,
      "isa": 4637,
      "dennis": 4638,
      "gebuch": 4639,
      "liches": 4640,
      "mig": 4641,
      "rufnummernportierung": 4642,
      "monate": 4643,
      "schritte": 4644,
      "genauer": 4645,
      "hra": 4646,
      "herzlichen": 4647,
      "druck": 4648,
      "warteschleife": 4649,
      "3a": 4650,
      "vermut": 4651,
      "codes": 4652,
      "mitteln": 4653,
      "fter": 4654,
      "stau": 4655,
      "ausreichen": 4656,
      "reiter": 4657,
      "cent": 4658,
      "geprüft": 4659,
      "sour": 4660,
      "wirt": 4661,
      "platt": 4662,
      "falsche": 4663,
      "dungs": 4664,
      "gten": 4665,
      "qr": 4666,
      "gewähr": 4667,
      "such": 4668,
      "spot": 4669,
      "bringen": 4670,
      "hilf": 4671,
      "teste": 4672,
      "under": 4673,
      "nutze": 4674,
      "ziele": 4675,
      "fällt": 4676,
      "insbesondere": 4677,
      "ram": 4678,
      "eingegangen": 4679,
      "attach": 4680,
      "basisstation": 4681,
      "vel": 4682,
      "befinden": 4683,
      "auflade": 4684,
      "ansagen": 4685,
      "hme": 4686,
      "freut": 4687,
      "gesprochen": 4688,
      "profitieren": 4689,
      "international": 4690,
      "synchron": 4691,
      "endgeräten": 4692,
      "nämlich": 4693,
      "ankommen": 4694,
      "versehen": 4695,
      "persönlichen": 4696,
      "nötig": 4697,
      "oph": 4698,
      "iper": 4699,
      "sorgen": 4700,
      "river": 4701,
      "freigeben": 4702,
      "bezug": 4703,
      "leid": 4704,
      "verwendung": 4705,
      "zertifiz": 4706,
      "ony": 4707,
      "zusendung": 4708,
      "parallel": 4709,
      "tren": 4710,
      "pen": 4711,
      "dopp": 4712,
      "deutlich": 4713,
      "gebeten": 4714,
      "vig": 4715,
      "cf": 4716,
      "€/": 4717,
      "auszahlung": 4718,
      "tätigen": 4719,
      "übermittelt": 4720,
      "technisch": 4721,
      "hohe": 4722,
      "funktional": 4723,
      "hintergrund": 4724,
      "gebaut": 4725,
      "individuelle": 4726,
      "========": 4727,
      "generell": 4728,
      "län": 4729,
      "anne": 4730,
      "loggt": 4731,
      "opti": 4732,
      "christoph": 4733,
      "clients": 4734,
      "zunehmen": 4735,
      "wh": 4736,
      "umge": 4737,
      "telefonanschluss": 4738,
      "hans": 4739,
      "……": 4740,
      "vorteil": 4741,
      "flor": 4742,
      "86": 4743,
      "kx": 4744,
      "kundenportal": 4745,
      "selben": 4746,
      "offene": 4747,
      "stelefon": 4748,
      "bre": 4749,
      "when": 4750,
      "zoho": 4751,
      "received": 4752,
      "mn": 4753,
      "sl": 4754,
      "see": 4755,
      "nov": 4756,
      "stoj": 4757,
      "marketing": 4758,
      "76": 4759,
      "exper": 4760,
      "hof": 4761,
      "remo": 4762,
      "kundenservice": 4763,
      "beantworten": 4764,
      "angeboten": 4765,
      "präsen": 4766,
      "verstehen": 4767,
      "fäl": 4768,
      "unseres": 4769,
      "beendet": 4770,
      "speicher": 4771,
      "stojsin": 4772,
      "tal": 4773,
      "folgeanfrage": 4774,
      "chter": 4775,
      "ports": 4776,
      "laufzeit": 4777,
      "dro": 4778,
      "send": 4779,
      "freischalten": 4780,
      "miss": 4781,
      "anforderungen": 4782,
      "schu": 4783,
      "kass": 4784,
      "only": 4785,
      "stam": 4786,
      "gemeldet": 4787,
      "irgendwie": 4788,
      "96": 4789,
      "cl": 4790,
      "lamp": 4791,
      "leitungs": 4792,
      "zoiper": 4793,
      "sorry": 4794,
      "stornieren": 4795,
      "schwier": 4796,
      "tl": 4797,
      "verlauf": 4798,
      "nieder": 4799,
      "trä": 4800,
      "777": 4801,
      "umgestellt": 4802,
      "ately": 4803,
      "begriff": 4804,
      "81": 4805,
      "kollege": 4806,
      "spam": 4807,
      "dateien": 4808,
      "schränk": 4809,
      "mwst": 4810,
      "spruch": 4811,
      "2021": 4812,
      "rab": 4813,
      "anderer": 4814,
      "selbstverständlich": 4815,
      "paul": 4816,
      "baden": 4817,
      "kümmer": 4818,
      "ml": 4819,
      "clip": 4820,
      "felder": 4821,
      "erstattung": 4822,
      "ader": 4823,
      "play": 4824,
      "ortsrufnummer": 4825,
      "original": 4826,
      "fte": 4827,
      "mache": 4828,
      "riverty": 4829,
      "211": 4830,
      "resse": 4831,
      "bestellung": 4832,
      "bedienung": 4833,
      "synchronis": 4834,
      "regu": 4835,
      "tzen": 4836,
      "click": 4837,
      "faktor": 4838,
      "nachvoll": 4839,
      "fast": 4840,
      "consult": 4841,
      "grade": 4842,
      "sorgt": 4843,
      "administration": 4844,
      "eb": 4845,
      "ermöglichen": 4846,
      "erklärung": 4847,
      "kömm": 4848,
      "wl": 4849,
      "“,": 4850,
      "cook": 4851,
      "gelten": 4852,
      "herkömm": 4853,
      "check": 4854,
      "dsgvo": 4855,
      "veröffent": 4856,
      "...“": 4857,
      "stri": 4858,
      "spie": 4859,
      "serviceportal": 4860,
      "vertragspartner": 4861,
      "dirk": 4862,
      "spezie": 4863,
      "type": 4864,
      "optim": 4865,
      "release": 4866,
      "kim": 4867,
      "od": 4868,
      "mithilfe": 4869,
      "abor": 4870,
      "cb": 4871,
      "sed": 4872,
      "rä": 4873,
      "mbit": 4874,
      "tls": 4875,
      "zy": 4876,
      "aufladen": 4877,
      "blog": 4878,
      "wan": 4879,
      "navig": 4880,
      "kloos": 4881,
      "lose": 4882,
      ";;;": 4883,
      "tron": 4884,
      "klärung": 4885,
      "absendernummer": 4886,
      "clau": 4887,
      "ral": 4888,
      "gebunden": 4889,
      "71": 4890,
      "jör": 4891,
      "simquadrat": 4892,
      "abs": 4893,
      "mindest": 4894,
      "lug": 4895,
      "alpha": 4896,
      "session": 4897,
      "aufen": 4898,
      "zeile": 4899,
      "stut": 4900,
      "verschickt": 4901,
      "eingehend": 4902,
      "kaufen": 4903,
      "bart": 4904,
      "size": 4905,
      "view": 4906,
      "außerhalb": 4907,
      "d8": 4908,
      "eintragen": 4909,
      "umstellen": 4910,
      "rechner": 4911,
      "outbound": 4912,
      "unterschiedliche": 4913,
      "flexibilität": 4914,
      "2x": 4915,
      "ks": 4916,
      "behör": 4917,
      "füllen": 4918,
      "anbieters": 4919,
      "adap": 4920,
      "projekt": 4921,
      "ring": 4922,
      "schmid": 4923,
      "geschaut": 4924,
      "konfigurations": 4925,
      "sha": 4926,
      "bezie": 4927,
      "duif": 4928,
      "zä": 4929,
      "telekommunikations": 4930,
      "copy": 4931,
      "menüpunkt": 4932,
      "communications": 4933,
      "selt": 4934,
      "metho": 4935,
      "selber": 4936,
      "zugeord": 4937,
      "assist": 4938,
      "just": 4939,
      "gekommen": 4940,
      "kontro": 4941,
      "einfache": 4942,
      "monaten": 4943,
      "florian": 4944,
      "ipv": 4945,
      "kleine": 4946,
      "gesprächspartner": 4947,
      "group": 4948,
      "öger": 4949,
      "ierter": 4950,
      "beding": 4951,
      "anhänge": 4952,
      "part": 4953,
      "david": 4954,
      "recip": 4955,
      "........": 4956,
      ".)": 4957,
      "440": 4958,
      "bezahlen": 4959,
      "appli": 4960,
      "fei": 4961,
      "wald": 4962,
      "stati": 4963,
      "aktualisiert": 4964,
      "interesse": 4965,
      "updates": 4966,
      "recipient": 4967,
      "blich": 4968,
      "tte": 4969,
      "annehmen": 4970,
      "protocol": 4971,
      "eher": 4972,
      "fähig": 4973,
      "c4": 4974,
      "kundendaten": 4975,
      "lieber": 4976,
      "bankkonto": 4977,
      "xl": 4978,
      "hoven": 4979,
      "2019": 4980,
      "rechnungsadresse": 4981,
      "analyse": 4982,
      "\"\"": 4983,
      "uc": 4984,
      "umsatzsteuer": 4985,
      "stuttg": 4986,
      "tin": 4987,
      "ilcj": 4988,
      "gerech": 4989,
      "tobi": 4990,
      "rechte": 4991,
      "ständige": 4992,
      "sämt": 4993,
      "stuttgart": 4994,
      "anpass": 4995,
      "led": 4996,
      "anbietern": 4997,
      "geor": 4998,
      "automatis": 4999,
      "jahre": 5000,
      "hubspot": 5001,
      "eng": 5002,
      "erkennen": 5003,
      "gers": 5004,
      "wenigen": 5005,
      "internen": 5006,
      "entfernt": 5007,
      "stum": 5008,
      "steuernummer": 5009,
      "newsletter": 5010,
      "verlassen": 5011,
      "setup": 5012,
      "witter": 5013,
      "profession": 5014,
      "ener": 5015,
      "design": 5016,
      "pflicht": 5017,
      "hannes": 5018,
      "diesbezüglich": 5019,
      "nächste": 5020,
      "97": 5021,
      "onn": 5022,
      "austau": 5023,
      "schnittstelle": 5024,
      "ilipp": 5025,
      "aufladebetrag": 5026,
      "cted": 5027,
      "stär": 5028,
      "stermin": 5029,
      "bräu": 5030,
      "bein": 5031,
      "bad": 5032,
      "mc": 5033,
      "philipp": 5034,
      "ordnen": 5035,
      "blue": 5036,
      "handelsregisterauszug": 5037,
      "tobias": 5038,
      "vier": 5039,
      "bedingt": 5040,
      "vermutlich": 5041,
      "ante": 5042,
      "sets": 5043,
      "berfläche": 5044,
      "2020": 5045,
      "bisherige": 5046,
      "nommen": 5047,
      "geehrtes": 5048,
      "twitter": 5049,
      "schriften": 5050,
      "matthias": 5051,
      "letzt": 5052,
      "anruft": 5053,
      "source": 5054,
      "ori": 5055,
      "abschließen": 5056,
      "zeitraum": 5057,
      "entwicklung": 5058,
      "erfahr": 5059,
      "??": 5060,
      "invi": 5061,
      "amt": 5062,
      "bildschirmfreigabe": 5063,
      "cd": 5064,
      "ption": 5065,
      "überwiesen": 5066,
      "phy": 5067,
      "gelaufen": 5068,
      "press": 5069,
      "symbol": 5070,
      "dert": 5071,
      "jovan": 5072,
      "verzöger": 5073,
      "deswegen": 5074,
      "fahr": 5075,
      "udp": 5076,
      "beheben": 5077,
      "zial": 5078,
      "inve": 5079,
      "\\\"": 5080,
      "weniger": 5081,
      "liefer": 5082,
      "w0": 5083,
      "sper": 5084,
      "vorgehen": 5085,
      "kontos": 5086,
      "eurer": 5087,
      "externen": 5088,
      "style": 5089,
      "62": 5090,
      "störungen": 5091,
      "angeschlossen": 5092,
      "————": 5093,
      "itäten": 5094,
      "din": 5095,
      "gehe": 5096,
      "iten": 5097,
      "eingegeben": 5098,
      "mitarbeitern": 5099,
      "notruf": 5100,
      "spezi": 5101,
      "rechnungsnummer": 5102,
      "vereinbaren": 5103,
      "fd": 5104,
      "pä": 5105,
      "vergangen": 5106,
      "spa": 5107,
      "spricht": 5108,
      "ategor": 5109,
      "hey": 5110,
      "fried": 5111,
      "sd": 5112,
      "gens": 5113,
      "aufbau": 5114,
      "gruppenrufnummer": 5115,
      "eignet": 5116,
      "bur": 5117,
      "a4": 5118,
      "denken": 5119,
      "akzep": 5120,
      "wolf": 5121,
      "teammitglieder": 5122,
      "faxen": 5123,
      "willkommen": 5124,
      "mikro": 5125,
      "weiteres": 5126,
      "träge": 5127,
      "nehme": 5128,
      "respon": 5129,
      "stellte": 5130,
      ",-": 5131,
      "beck": 5132,
      "rechenzentr": 5133,
      "weises": 5134,
      "lution": 5135,
      "praxis": 5136,
      "referenz": 5137,
      "gesprächen": 5138,
      "bsp": 5139,
      "arn": 5140,
      "rücksprache": 5141,
      "zugreifen": 5142,
      "meist": 5143,
      "unver": 5144,
      "irrt": 5145,
      "holen": 5146,
      "meldungen": 5147,
      "manch": 5148,
      "91": 5149,
      "md": 5150,
      "real": 5151,
      "unterdrück": 5152,
      "b4": 5153,
      "verbesser": 5154,
      "xel": 5155,
      "dez": 5156,
      "demand": 5157,
      "male": 5158,
      "persönlich": 5159,
      "contain": 5160,
      "früher": 5161,
      "freigeschaltet": 5162,
      "77777777": 5163,
      "rechtsan": 5164,
      "director": 5165,
      "dra": 5166,
      "ähn": 5167,
      "vermittlung": 5168,
      "internationale": 5169,
      "freundlichem": 5170,
      "plattform": 5171,
      "bedingungen": 5172,
      "ux": 5173,
      "aboration": 5174,
      "bic": 5175,
      "privaten": 5176,
      "blatt": 5177,
      "zugeordnet": 5178,
      "kra": 5179,
      "rent": 5180,
      "there": 5181,
      "netzagentur": 5182,
      "stattet": 5183,
      "cts": 5184,
      "usa": 5185,
      "rep": 5186,
      "problemen": 5187,
      "gründe": 5188,
      "2fa": 5189,
      "vorliegen": 5190,
      "genannt": 5191,
      "fication": 5192,
      "funktionsta": 5193,
      "feren": 5194,
      "company": 5195,
      "claudia": 5196,
      "hig": 5197,
      "bezahlt": 5198,
      "alltag": 5199,
      "zumin": 5200,
      "xxxxxxxx": 5201,
      "bundesnetzagentur": 5202,
      "migration": 5203,
      "schmidt": 5204,
      "unsub": 5205,
      "ika": 5206,
      "digitale": 5207,
      "volte": 5208,
      "personalausweis": 5209,
      "kürz": 5210,
      "kanäle": 5211,
      "stimm": 5212,
      "konings": 5213,
      "flexibel": 5214,
      "situ": 5215,
      "perfekt": 5216,
      "0221": 5217,
      "upload": 5218,
      "ursache": 5219,
      "control": 5220,
      "tat": 5221,
      "allgemein": 5222,
      "schönes": 5223,
      "abe": 5224,
      "echt": 5225,
      "einfl": 5226,
      "nolte": 5227,
      "ständigen": 5228,
      "systems": 5229,
      "sichts": 5230,
      "koningshoven": 5231,
      "8e": 5232,
      "bord": 5233,
      "lap": 5234,
      "ausfall": 5235,
      "unified": 5236,
      "lampen": 5237,
      "minute": 5238,
      "nico": 5239,
      "verifizierungsbrief": 5240,
      "delete": 5241,
      "zip": 5242,
      "vertra": 5243,
      "rolle": 5244,
      "bestätigungs": 5245,
      "außen": 5246,
      "wären": 5247,
      "müller": 5248,
      "hnung": 5249,
      "linked": 5250,
      "beenden": 5251,
      "export": 5252,
      "schöne": 5253,
      "breit": 5254,
      "maren": 5255,
      "zumindest": 5256,
      "immobil": 5257,
      "konten": 5258,
      "betriebssyste": 5259,
      "manchmal": 5260,
      "zuvor": 5261,
      "adapter": 5262,
      "sämtliche": 5263,
      "yiv": 5264,
      "poli": 5265,
      "steffi": 5266,
      "scri": 5267,
      "füllt": 5268,
      "berater": 5269,
      "menschen": 5270,
      "stellten": 5271,
      "zeitnah": 5272,
      "zurichten": 5273,
      "integrieren": 5274,
      "gewährlei": 5275,
      "dri": 5276,
      "häufigsten": 5277,
      "gy": 5278,
      "enter": 5279,
      "span": 5280,
      "telefonnetz": 5281,
      "haup": 5282,
      "ursprüngliche": 5283,
      "einschränk": 5284,
      "manu": 5285,
      "betri": 5286,
      "storniert": 5287,
      "f6": 5288,
      "swit": 5289,
      "author": 5290,
      "immedi": 5291,
      "auskunft": 5292,
      "hochladen": 5293,
      "remote": 5294,
      "steph": 5295,
      "aufzu": 5296,
      "laub": 5297,
      "automatischen": 5298,
      "drucker": 5299,
      "kostenlosen": 5300,
      "patri": 5301,
      "menu": 5302,
      "interface": 5303,
      "important": 5304,
      "invite": 5305,
      "aufnehmen": 5306,
      "more": 5307,
      "anderem": 5308,
      "klaus": 5309,
      "tätig": 5310,
      "ressour": 5311,
      "class": 5312,
      "€.": 5313,
      "einzurichten": 5314,
      "itter": 5315,
      "glas": 5316,
      "detail": 5317,
      "licherweise": 5318,
      "################": 5319,
      "personenbezogenen": 5320,
      "betrifft": 5321,
      "ding": 5322,
      "paid": 5323,
      "internetanschluss": 5324,
      "gerechnet": 5325,
      "94": 5326,
      "ix": 5327,
      "merkt": 5328,
      "rote": 5329,
      "shop": 5330,
      "stimmen": 5331,
      "übernahme": 5332,
      "gesellscha": 5333,
      "fam": 5334,
      "wg": 5335,
      "force": 5336,
      "ortsnetz": 5337,
      "verlängerung": 5338,
      "zuordnen": 5339,
      "rufnummernmitnahme": 5340,
      "gespielt": 5341,
      "höri": 5342,
      "windig": 5343,
      "tipps": 5344,
      "ec": 5345,
      "rier": 5346,
      "linkedin": 5347,
      "schwer": 5348,
      "3cx": 5349,
      "laptop": 5350,
      "eil": 5351,
      "zusatz": 5352,
      "istor": 5353,
      "schaffen": 5354,
      "evtl": 5355,
      "eh": 5356,
      "rate": 5357,
      "nachfrage": 5358,
      "geschwindig": 5359,
      "johannes": 5360,
      "signal": 5361,
      "kul": 5362,
      "deckt": 5363,
      "font": 5364,
      "pay": 5365,
      "setzung": 5366,
      "ebenso": 5367,
      "anschlüssen": 5368,
      "\"&": 5369,
      "hor": 5370,
      "reag": 5371,
      "umziehen": 5372,
      "testanruf": 5373,
      "großen": 5374,
      ":+": 5375,
      "entnehmen": 5376,
      "typ": 5377,
      "immediately": 5378,
      "cau": 5379,
      "fw": 5380,
      "far": 5381,
      "grei": 5382,
      "ncti": 5383,
      "tapi": 5384,
      "angeben": 5385,
      "ou": 5386,
      "ausweises": 5387,
      "extra": 5388,
      "tarifen": 5389,
      "monatlichen": 5390,
      "zurücksetzen": 5391,
      "einzige": 5392,
      "impro": 5393,
      "sorg": 5394,
      "basierte": 5395,
      "aktiven": 5396,
      "feier": 5397,
      "\":": 5398,
      "anony": 5399,
      "ally": 5400,
      "festlegen": 5401,
      "adding": 5402,
      "rabatt": 5403,
      "vdsl": 5404,
      "foto": 5405,
      "exten": 5406,
      "berechtig": 5407,
      "kompliz": 5408,
      "teten": 5409,
      "wid": 5410,
      "faxnummer": 5411,
      "sü": 5412,
      "netzbetreiber": 5413,
      "sr": 5414,
      "sum": 5415,
      "äl": 5416,
      "ceo": 5417,
      "monatsende": 5418,
      "72": 5419,
      "ansicht": 5420,
      "numbers": 5421,
      "vul": 5422,
      "itsch": 5423,
      "header": 5424,
      "franz": 5425,
      "lligen": 5426,
      "smartphones": 5427,
      "tauch": 5428,
      "übernommen": 5429,
      "bringt": 5430,
      "techniker": 5431,
      "tool": 5432,
      "carrier": 5433,
      "umgezogen": 5434,
      "300": 5435,
      "mx": 5436,
      "stie": 5437,
      "abi": 5438,
      "freder": 5439,
      "wiggers": 5440,
      "existiert": 5441,
      "verkehr": 5442,
      "dipl": 5443,
      "musste": 5444,
      "schalt": 5445,
      "unterschiedlichen": 5446,
      "current": 5447,
      "wobei": 5448,
      "freiminuten": 5449,
      "belieb": 5450,
      "which": 5451,
      "physi": 5452,
      ";/": 5453,
      "nachgeschaut": 5454,
      "portierte": 5455,
      "power": 5456,
      "ressourcen": 5457,
      "a5": 5458,
      "histor": 5459,
      "inbetrieb": 5460,
      "gige": 5461,
      "d1": 5462,
      "ght": 5463,
      "vpn": 5464,
      "denke": 5465,
      "raten": 5466,
      "listen": 5467,
      "irrtü": 5468,
      "größ": 5469,
      "collaboration": 5470,
      "inbetriebnahme": 5471,
      "wb": 5472,
      "176": 5473,
      "privi": 5474,
      "headsets": 5475,
      "nachvollziehen": 5476,
      "93": 5477,
      "ata": 5478,
      "hnen": 5479,
      "nf": 5480,
      "rhein": 5481,
      "uwe": 5482,
      "neten": 5483,
      "weitergabe": 5484,
      "angerufene": 5485,
      "isk": 5486,
      "distri": 5487,
      "ame": 5488,
      "sofor": 5489,
      "allee": 5490,
      "92": 5491,
      "camp": 5492,
      "solution": 5493,
      "gewerbeanmeldung": 5494,
      "vertragsdatenänderung": 5495,
      "aster": 5496,
      "ong": 5497,
      "mate": 5498,
      "solltest": 5499,
      "medium": 5500,
      "kombination": 5501,
      "stik": 5502,
      "stellungen": 5503,
      "gib": 5504,
      "benutzername": 5505,
      "ubli": 5506,
      "georg": 5507,
      "whi": 5508,
      "ergän": 5509,
      "teilweise": 5510,
      "punkte": 5511,
      "tur": 5512,
      "atch": 5513,
      "usb": 5514,
      "ankli": 5515,
      "klein": 5516,
      "handeln": 5517,
      "warteschl": 5518,
      "knab": 5519,
      "tür": 5520,
      "kai": 5521,
      "gebrochen": 5522,
      "videokonferenzen": 5523,
      "bür": 5524,
      "dor": 5525,
      "steigen": 5526,
      "schlag": 5527,
      "hohen": 5528,
      "mobilnummer": 5529,
      "operator": 5530,
      "panason": 5531,
      "b6": 5532,
      "stets": 5533,
      "keinerlei": 5534,
      "veranlasst": 5535,
      "panasonic": 5536,
      "med": 5537,
      "gutgeschrieben": 5538,
      "sky": 5539,
      "711": 5540,
      "signalisiert": 5541,
      "videokonferenz": 5542,
      "immobilien": 5543,
      "knabben": 5544,
      "brand": 5545,
      "schneller": 5546,
      "hg": 5547,
      "verhält": 5548,
      "aufsichts": 5549,
      "eln": 5550,
      "acc": 5551,
      "gesund": 5552,
      "fun": 5553,
      "find": 5554,
      "tu": 5555,
      "ergeb": 5556,
      "redu": 5557,
      "mach": 5558,
      "aming": 5559,
      "digitalen": 5560,
      "notify": 5561,
      "erlaub": 5562,
      "wirtschaft": 5563,
      "älter": 5564,
      "bauen": 5565,
      "e0": 5566,
      "antrag": 5567,
      "beantwortet": 5568,
      "carsten": 5569,
      "probieren": 5570,
      "bezeichnet": 5571,
      "tiver": 5572,
      "ablauf": 5573,
      "leitet": 5574,
      "kopieren": 5575,
      "invest": 5576,
      "noori": 5577,
      "reise": 5578,
      "neustart": 5579,
      "allgemeinen": 5580,
      "moderne": 5581,
      "maßnahmen": 5582,
      "stamm": 5583,
      "essen": 5584,
      "nn": 5585,
      "profile": 5586,
      "dg": 5587,
      "kal": 5588,
      "ägt": 5589,
      "gefragt": 5590,
      "medien": 5591,
      "kategor": 5592,
      "inkass": 5593,
      "sever": 5594,
      "aufgaben": 5595,
      "word": 5596,
      "kurt": 5597,
      "anrufers": 5598,
      "presse": 5599,
      "domin": 5600,
      "übertragungs": 5601,
      "adressaten": 5602,
      "schlecht": 5603,
      "hs": 5604,
      "hörer": 5605,
      "charlo": 5606,
      "vulner": 5607,
      "rad": 5608,
      "route": 5609,
      "aufgebaut": 5610,
      "unterschei": 5611,
      "ganzen": 5612,
      "anhand": 5613,
      "abgebrochen": 5614,
      "löcke": 5615,
      "garan": 5616,
      "015": 5617,
      "4c": 5618,
      "glau": 5619,
      "stro": 5620,
      "social": 5621,
      "möglicherweise": 5622,
      "upgrade": 5623,
      "zeichnet": 5624,
      "betriebs": 5625,
      ":)": 5626,
      "krie": 5627,
      "tau": 5628,
      "sepa": 5629,
      "ierbar": 5630,
      "dient": 5631,
      "anschlussinhaber": 5632,
      "iges": 5633,
      "avm": 5634,
      "ica": 5635,
      "aring": 5636,
      "webo": 5637,
      "xxx": 5638,
      "asterisk": 5639,
      "b8": 5640,
      "qv": 5641,
      "abschluss": 5642,
      "satell": 5643,
      "150": 5644,
      "eingehender": 5645,
      "regeln": 5646,
      "pft": 5647,
      "ume": 5648,
      "ctly": 5649,
      "erweiterte": 5650,
      "identity": 5651,
      "abteilung": 5652,
      "porting": 5653,
      "365": 5654,
      "ratgeber": 5655,
      "ausreichend": 5656,
      "famil": 5657,
      "frederik": 5658,
      "9e": 5659,
      "gmt": 5660,
      "nu": 5661,
      "wrote": 5662,
      "iertes": 5663,
      "stech": 5664,
      "nette": 5665,
      "angabe": 5666,
      "folgender": 5667,
      "roaming": 5668,
      "festge": 5669,
      "benutzern": 5670,
      "einfacher": 5671,
      "ausgewählt": 5672,
      "anzurufen": 5673,
      "hung": 5674,
      "lor": 5675,
      "pu": 5676,
      "erwä": 5677,
      "halts": 5678,
      "smi": 5679,
      "angegebene": 5680,
      "tooth": 5681,
      "border": 5682,
      "bluetooth": 5683,
      "gre": 5684,
      "kin": 5685,
      "dahin": 5686,
      "las": 5687,
      "handys": 5688,
      "annahme": 5689,
      "bedür": 5690,
      "besetztlampen": 5691,
      "gültig": 5692,
      "bd": 5693,
      "schnur": 5694,
      "hold": 5695,
      "legenheit": 5696,
      "wechselt": 5697,
      "christine": 5698,
      "gewohnt": 5699,
      "fab": 5700,
      "read": 5701,
      "grand": 5702,
      "qui": 5703,
      "quot": 5704,
      "eingeloggt": 5705,
      "steuerung": 5706,
      "bernd": 5707,
      "salmon": 5708,
      "rufe": 5709,
      "fritsch": 5710,
      "standorts": 5711,
      "europä": 5712,
      "220a9": 5713,
      "aufzeichnung": 5714,
      "charlotten": 5715,
      "pz": 5716,
      "worum": 5717,
      "thilo": 5718,
      "83": 5719,
      "ava": 5720,
      "hm": 5721,
      "jür": 5722,
      "sat": 5723,
      "fair": 5724,
      "manuelle": 5725,
      "höch": 5726,
      "schicke": 5727,
      "breitband": 5728,
      "none": 5729,
      "how": 5730,
      "555": 5731,
      "lastung": 5732,
      "tara": 5733,
      "modelle": 5734,
      "salesforce": 5735,
      "anspruch": 5736,
      "bestellt": 5737,
      "wed": 5738,
      "aufgefallen": 5739,
      "beginn": 5740,
      "versicherungs": 5741,
      "weboberfläche": 5742,
      "1a": 5743,
      "anten": 5744,
      "beschrän": 5745,
      "irgen": 5746,
      "access": 5747,
      "faser": 5748,
      "höff": 5749,
      "analoge": 5750,
      "sven": 5751,
      "wr": 5752,
      "begrüß": 5753,
      "schritten": 5754,
      "glasfaser": 5755,
      "greift": 5756,
      "cel": 5757,
      "jam": 5758,
      "auspro": 5759,
      "umstän": 5760,
      "besitz": 5761,
      "heben": 5762,
      "volle": 5763,
      "c2": 5764,
      "anscheinen": 5765,
      "dns": 5766,
      "analogen": 5767,
      "effizien": 5768,
      "erinnerung": 5769,
      "220a988": 5770,
      ":-": 5771,
      "bf": 5772,
      "cell": 5773,
      "privilege": 5774,
      "gehören": 5775,
      "kopf": 5776,
      "fassen": 5777,
      "verfügbarkeit": 5778,
      "maximal": 5779,
      "gesellschafter": 5780,
      "dal": 5781,
      "ual": 5782,
      "abwei": 5783,
      "freizeichen": 5784,
      "produktiv": 5785,
      "wartemusik": 5786,
      "keln": 5787,
      "addresse": 5788,
      "behebung": 5789,
      "zuverlässig": 5790,
      "funktionstasten": 5791,
      "ktion": 5792,
      "netzt": 5793,
      "verhin": 5794,
      "anrufweiterleitung": 5795,
      "rechnen": 5796,
      "emails": 5797,
      "kevin": 5798,
      "funktionsumfang": 5799,
      "anklicken": 5800,
      "bw": 5801,
      "ima": 5802,
      "erstatten": 5803,
      "einfluss": 5804,
      "anscheinend": 5805,
      "spac": 5806,
      "telefonaten": 5807,
      "2018": 5808,
      "agram": 5809,
      "jahres": 5810,
      "austausch": 5811,
      "ausprob": 5812,
      ":*": 5813,
      "gewählt": 5814,
      "nachmittag": 5815,
      "vorliegt": 5816,
      "wartet": 5817,
      "────": 5818,
      "disch": 5819,
      "internettelefonie": 5820,
      "klärt": 5821,
      "voraussetzung": 5822,
      "harina": 5823,
      "consulting": 5824,
      "bemü": 5825,
      "sele": 5826,
      "abgerechnet": 5827,
      "riffen": 5828,
      "passieren": 5829,
      "walt": 5830,
      "screening": 5831,
      "methode": 5832,
      "jä": 5833,
      "bearbeitet": 5834,
      "verfügen": 5835,
      "treffen": 5836,
      "messaging": 5837,
      "hausen": 5838,
      "prak": 5839,
      "sung": 5840,
      "vv": 5841,
      "sec": 5842,
      "grundlage": 5843,
      "preisliste": 5844,
      "mikrofon": 5845,
      "charlottenburg": 5846,
      "4f": 5847,
      "zb": 5848,
      "ona": 5849,
      "zuerst": 5850,
      "kümmern": 5851,
      "spielen": 5852,
      "sperre": 5853,
      "sb": 5854,
      "dritte": 5855,
      "instagram": 5856,
      "benötigte": 5857,
      "padding": 5858,
      "sti": 5859,
      "offiz": 5860,
      "prior": 5861,
      "dezember": 5862,
      "87": 5863,
      "need": 5864,
      "well": 5865,
      "netze": 5866,
      "prepaid": 5867,
      "postfach": 5868,
      "herstellers": 5869,
      "irrtümlich": 5870,
      "sur": 5871,
      "wm": 5872,
      "vertre": 5873,
      "übermittlung": 5874,
      "weiterleitungs": 5875,
      "mois": 5876,
      "entwickelt": 5877,
      "gesamten": 5878,
      "offizie": 5879,
      "ieben": 5880,
      "dacht": 5881,
      "beschä": 5882,
      "tzei": 5883,
      "urlaub": 5884,
      "spor": 5885,
      "started": 5886,
      "regelmäßig": 5887,
      "organisation": 5888,
      "jürgen": 5889,
      "400": 5890,
      "82": 5891,
      "vö": 5892,
      "forderungen": 5893,
      "veranlassen": 5894,
      "situation": 5895,
      "reduz": 5896,
      "bedürf": 5897,
      "220a988a8a": 5898,
      "verblei": 5899,
      "bisheriger": 5900,
      "teilnehmern": 5901,
      "sabr": 5902,
      "nungs": 5903,
      "kundenbereich": 5904,
      "dition": 5905,
      "katharina": 5906,
      "zukünftig": 5907,
      "höffken": 5908,
      "hungen": 5909,
      "watch": 5910,
      "gewesen": 5911,
      "leicht": 5912,
      "attachments": 5913,
      "sabrina": 5914,
      "506": 5915,
      "ling": 5916,
      "unbedingt": 5917,
      "initi": 5918,
      "einiger": 5919,
      "its": 5920,
      "beta": 5921,
      "schick": 5922,
      "record": 5923,
      "wichtigsten": 5924,
      "privileged": 5925,
      "eg": 5926,
      "eck": 5927,
      "wy": 5928,
      "angefragt": 5929,
      "angegebenen": 5930,
      "hätten": 5931,
      "beantragen": 5932,
      "unity": 5933,
      "mögliche": 5934,
      "optional": 5935,
      "lokalen": 5936,
      "geschwindigkeit": 5937,
      "eingesch": 5938,
      "beein": 5939,
      "messen": 5940,
      "weiterer": 5941,
      "komplette": 5942,
      "adressat": 5943,
      "-,": 5944,
      "kus": 5945,
      "makeln": 5946,
      "ausführ": 5947,
      "nahe": 5948,
      "routings": 5949,
      "flatrates": 5950,
      "fristig": 5951,
      "skype": 5952,
      "lorenz": 5953,
      "kas": 5954,
      "ruft": 5955,
      "leiter": 5956,
      "filter": 5957,
      "gesamte": 5958,
      "xv": 5959,
      "endet": 5960,
      "usw": 5961,
      "julian": 5962,
      "file": 5963,
      "apn": 5964,
      "intelligen": 5965,
      "angenehmen": 5966,
      "blank": 5967,
      "standorten": 5968,
      "fikation": 5969,
      "––––––––": 5970,
      "beauftragt": 5971,
      ".“": 5972,
      "mor": 5973,
      "prin": 5974,
      "toplink": 5975,
      "irgendwo": 5976,
      "betroffenen": 5977,
      "individuellen": 5978,
      "tis": 5979,
      "sandra": 5980,
      "integriert": 5981,
      ",&": 5982,
      "verändert": 5983,
      "aktive": 5984,
      "samsung": 5985,
      "stande": 5986,
      "identi": 5987,
      "grandstream": 5988,
      "udo": 5989,
      "wf": 5990,
      "aufwand": 5991,
      "reis": 5992,
      "gerätes": 5993,
      "benutzt": 5994,
      "drin": 5995,
      "fixes": 5996,
      "operations": 5997,
      "dorf": 5998,
      "steffen": 5999,
      "gert": 6000,
      "managing": 6001,
      "höher": 6002,
      "agenten": 6003,
      "korrigiert": 6004,
      "high": 6005,
      "ehe": 6006,
      "dritt": 6007,
      "aykurt": 6008,
      "stieg": 6009,
      "ther": 6010,
      "wör": 6011,
      "ana": 6012,
      "deck": 6013,
      "kleiner": 6014,
      "fordert": 6015,
      "kurzem": 6016,
      "dienstlei": 6017,
      "999999": 6018,
      "ek": 6019,
      "ets": 6020,
      "möglichst": 6021,
      "passende": 6022,
      "zzgl": 6023,
      "wählte": 6024,
      "erneute": 6025,
      "professionelle": 6026,
      "vm": 6027,
      "boden": 6028,
      "poten": 6029,
      "kündige": 6030,
      "switch": 6031,
      "d3": 6032,
      "wu": 6033,
      "datenpakete": 6034,
      "codec": 6035,
      "langen": 6036,
      "genaue": 6037,
      "lub": 6038,
      "weltweit": 6039,
      "haftungs": 6040,
      "angestoßen": 6041,
      "faxdrucker": 6042,
      "users": 6043,
      "digitalisierung": 6044,
      "daraufhin": 6045,
      "cookies": 6046,
      "know": 6047,
      "action": 6048,
      "sure": 6049,
      "manden": 6050,
      "sprecher": 6051,
      "größe": 6052,
      "angebote": 6053,
      "bessern": 6054,
      "falle": 6055,
      "danken": 6056,
      "vorstand": 6057,
      "portierst": 6058,
      "scheinbar": 6059,
      "ny": 6060,
      "rr": 6061,
      "srtp": 6062,
      "übri": 6063,
      "vermei": 6064,
      "nutzbar": 6065,
      "kleinen": 6066,
      "heiten": 6067,
      "sproble": 6068,
      "schnei": 6069,
      "anpassung": 6070,
      "verlu": 6071,
      "weist": 6072,
      "prote": 6073,
      "screenshots": 6074,
      "jens": 6075,
      "mme": 6076,
      "überzeu": 6077,
      "datenbank": 6078,
      "erlaubt": 6079,
      "bereiche": 6080,
      "drop": 6081,
      "betriebssystem": 6082,
      "üb": 6083,
      "iner": 6084,
      "vern": 6085,
      "usz": 6086,
      "height": 6087,
      "sachver": 6088,
      "lokale": 6089,
      "disclo": 6090,
      "komponen": 6091,
      "stelefonieren": 6092,
      "width": 6093,
      "damals": 6094,
      "teilig": 6095,
      "systemen": 6096,
      "fällig": 6097,
      "stattdessen": 6098,
      "einzuloggen": 6099,
      "severity": 6100,
      "tan": 6101,
      "zuführen": 6102,
      "miteinander": 6103,
      "benutzers": 6104,
      "testens": 6105,
      "dynam": 6106,
      "energie": 6107,
      "patrick": 6108,
      "pier": 6109,
      "adsl": 6110,
      "1234": 6111,
      "eingebucht": 6112,
      "absenderrufnummer": 6113,
      "tätigt": 6114,
      "beliebi": 6115,
      "):": 6116,
      "4g": 6117,
      "lit": 6118,
      "ali": 6119,
      "schütz": 6120,
      "dran": 6121,
      "vielfäl": 6122,
      "schwierigkeiten": 6123,
      "stephan": 6124,
      "1f": 6125,
      "einwand": 6126,
      "verbessern": 6127,
      "host": 6128,
      "eigent": 6129,
      "...“.": 6130,
      "personalausweises": 6131,
      "distribu": 6132,
      "vs": 6133,
      "result": 6134,
      "verursach": 6135,
      "ppen": 6136,
      "weitergelei": 6137,
      "endlich": 6138,
      "spätestens": 6139,
      "größer": 6140,
      "gebuchten": 6141,
      "ralf": 6142,
      "beschäf": 6143,
      "nvoice": 6144,
      "daß": 6145,
      "anklo": 6146,
      "mobilteil": 6147,
      "106": 6148,
      "sprachmenü": 6149,
      "kenntnis": 6150,
      "d2": 6151,
      "freischaltung": 6152,
      "firmenname": 6153,
      "unbegrenz": 6154,
      "funktionalität": 6155,
      "solutions": 6156,
      "angewiesen": 6157,
      "dauerhaft": 6158,
      "zentral": 6159,
      "utm_medium": 6160,
      "optimal": 6161,
      "glaube": 6162,
      "\"-": 6163,
      "dw": 6164,
      "hart": 6165,
      "einmalig": 6166,
      "250": 6167,
      "kurzwahl": 6168,
      "zwischenzeit": 6169,
      "komplex": 6170,
      "holfen": 6171,
      "för": 6172,
      "sla": 6173,
      "telefonica": 6174,
      "151": 6175,
      "deines": 6176,
      "matik": 6177,
      "einwandfrei": 6178,
      "hz": 6179,
      "verschicken": 6180,
      "zusätzlichen": 6181,
      "signalisierung": 6182,
      "jörg": 6183,
      "kau": 6184,
      "nete": 6185,
      "verlässt": 6186,
      "betreffen": 6187,
      "hochgeladen": 6188,
      "krit": 6189,
      "1x": 6190,
      "icon": 6191,
      "w4": 6192,
      "ierungen": 6193,
      "telekommunikation": 6194,
      "vorsitzen": 6195,
      "geschäftskunden": 6196,
      "buchungen": 6197,
      "zesse": 6198,
      "firmierung": 6199,
      "aktualisieren": 6200,
      "probiert": 6201,
      "bungs": 6202,
      "gz": 6203,
      "geholfen": 6204,
      "tzeit": 6205,
      "hervor": 6206,
      "entlich": 6207,
      "festnetznummern": 6208,
      "vertrauen": 6209,
      "kostenpflichtig": 6210,
      "017": 6211,
      "pj": 6212,
      "beglichen": 6213,
      "urs": 6214,
      "ständi": 6215,
      "echte": 6216,
      "speed": 6217,
      "betreiben": 6218,
      "korrekte": 6219,
      "inkasso": 6220,
      "unge": 6221,
      "990": 6222,
      "vertragslaufzeit": 6223,
      "hauptinhalt": 6224,
      "seitens": 6225,
      "**": 6226,
      "_h": 6227,
      "gner": 6228,
      "eite": 6229,
      "ieht": 6230,
      "abfrage": 6231,
      "commer": 6232,
      "solange": 6233,
      "individuell": 6234,
      "bat": 6235,
      "nega": 6236,
      "mad": 6237,
      "vereinbar": 6238,
      "zahlungsdaten": 6239,
      "idee": 6240,
      "augu": 6241,
      "vorgesehen": 6242,
      "schriftlich": 6243,
      "findest": 6244,
      "julia": 6245,
      "order": 6246,
      "mag": 6247,
      "160": 6248,
      "guthabens": 6249,
      "eurem": 6250,
      "sharing": 6251,
      "herkömmlichen": 6252,
      "~~": 6253,
      "haltet": 6254,
      "connector": 6255,
      "cve": 6256,
      "fore": 6257,
      "simon": 6258,
      "registrar": 6259,
      "detaill": 6260,
      "getätigt": 6261,
      "uml": 6262,
      "umzu": 6263,
      "zuteilen": 6264,
      "füll": 6265,
      "5f": 6266,
      "sar": 6267,
      "yj": 6268,
      "erlei": 6269,
      "password": 6270,
      "stark": 6271,
      "stock": 6272,
      "mobiles": 6273,
      "ski": 6274,
      "b9": 6275,
      "ow": 6276,
      "arm": 6277,
      "usst": 6278,
      "niemand": 6279,
      "abhängig": 6280,
      "vr": 6281,
      "w3": 6282,
      "zit": 6283,
      "diver": 6284,
      "sucht": 6285,
      "corre": 6286,
      "dtmf": 6287,
      "dialog": 6288,
      "5g": 6289,
      "fasst": 6290,
      "mund": 6291,
      "delt": 6292,
      "leu": 6293,
      "itiv": 6294,
      "atur": 6295,
      "anschlusses": 6296,
      "wichtiger": 6297,
      "anmeldedaten": 6298,
      "doppel": 6299,
      "extension": 6300,
      "mute": 6301,
      "ald": 6302,
      "less": 6303,
      "manda": 6304,
      "grundfunktionen": 6305,
      "empfo": 6306,
      "application": 6307,
      "-/": 6308,
      "0x": 6309,
      "qi": 6310,
      "bedauern": 6311,
      "eitung": 6312,
      "angeleg": 6313,
      "gigen": 6314,
      "problems": 6315,
      "karl": 6316,
      "c8": 6317,
      "reset": 6318,
      "leer": 6319,
      "verwand": 6320,
      "follo": 6321,
      "possi": 6322,
      "dnd": 6323,
      "betrieben": 6324,
      "ortsrufnummern": 6325,
      "normale": 6326,
      "provisionierung": 6327,
      "empfohlen": 6328,
      "bö": 6329,
      "jon": 6330,
      "achtung": 6331,
      "netzwer": 6332,
      "phn": 6333,
      "blockiert": 6334,
      "dienstleister": 6335,
      "belastung": 6336,
      "auftreten": 6337,
      "überein": 6338,
      "faxgerät": 6339,
      "klingelton": 6340,
      "right": 6341,
      "vorsitzender": 6342,
      "4a": 6343,
      "4d": 6344,
      "kb": 6345,
      "kj": 6346,
      "zr": 6347,
      "dement": 6348,
      "meyer": 6349,
      "tierung": 6350,
      "print": 6351,
      "after": 6352,
      "aussage": 6353,
      "oe": 6354,
      "ierst": 6355,
      "werte": 6356,
      "satelite": 6357,
      "aktiviere": 6358,
      "codecs": 6359,
      "card": 6360,
      "iss": 6361,
      "pal": 6362,
      "unterschrieben": 6363,
      "10er": 6364,
      "sichere": 6365,
      "verwaltungs": 6366,
      "pick": 6367,
      "verbindet": 6368,
      "answer": 6369,
      "dementsprechen": 6370,
      "f7": 6371,
      "erstattet": 6372,
      "kostenpflichtige": 6373,
      "4e": 6374,
      "c6": 6375,
      "tru": 6376,
      "gestattet": 6377,
      "sache": 6378,
      "szen": 6379,
      "bräuchte": 6380,
      "king": 6381,
      "mera": 6382,
      "ilian": 6383,
      "spann": 6384,
      "vorhandenen": 6385,
      "community": 6386,
      "aaaaaaaa": 6387,
      "ipv6": 6388,
      "statistik": 6389,
      "campa": 6390,
      "fangen": 6391,
      "lungs": 6392,
      "getren": 6393,
      "umgeb": 6394,
      "tze": 6395,
      "mensch": 6396,
      "euer": 6397,
      "gelangen": 6398,
      "strate": 6399,
      "verfügt": 6400,
      "gewö": 6401,
      "bru": 6402,
      "hne": 6403,
      "sing": 6404,
      "entin": 6405,
      "portierungstermin": 6406,
      "cong": 6407,
      "marco": 6408,
      "beauftragen": 6409,
      "variante": 6410,
      "lim": 6411,
      "rän": 6412,
      "she": 6413,
      "ersetzen": 6414,
      "level": 6415,
      "hotel": 6416,
      "wagner": 6417,
      "kontostand": 6418,
      "einzelverbindungs": 6419,
      "gala": 6420,
      "kirsz": 6421,
      "itäts": 6422,
      "eingeschrän": 6423,
      "august": 6424,
      "follow": 6425,
      "campaign": 6426,
      "rö": 6427,
      "berück": 6428,
      "linie": 6429,
      "ordner": 6430,
      "privatkunden": 6431,
      "avail": 6432,
      "berücksich": 6433,
      "decken": 6434,
      "tic": 6435,
      "bedauer": 6436,
      "abmelden": 6437,
      "geräts": 6438,
      "quenz": 6439,
      "drauf": 6440,
      "prim": 6441,
      "rechnungsanschrift": 6442,
      "kontakten": 6443,
      "gestalten": 6444,
      "günstig": 6445,
      "günstiger": 6446,
      "beschränkt": 6447,
      "mandats": 6448,
      "dre": 6449,
      "kv": 6450,
      "secur": 6451,
      "ruhe": 6452,
      "callcenter": 6453,
      "technologi": 6454,
      "schlechte": 6455,
      "gesetzlichen": 6456,
      "rechenzentren": 6457,
      "mateusz": 6458,
      "d9": 6459,
      "pw": 6460,
      "ran": 6461,
      "refer": 6462,
      "mader": 6463,
      "heu": 6464,
      "poly": 6465,
      "kontaktdaten": 6466,
      "tempor": 6467,
      "ssione": 6468,
      "musst": 6469,
      "präsenz": 6470,
      "einschränkungen": 6471,
      "ktron": 6472,
      "conferen": 6473,
      "freie": 6474,
      "zusammenhang": 6475,
      "lukas": 6476,
      "angerufenen": 6477,
      "skal": 6478,
      "solchen": 6479,
      "phoner": 6480,
      "verlängert": 6481,
      "inzwischen": 6482,
      "token": 6483,
      "schaden": 6484,
      "lokal": 6485,
      "bessere": 6486,
      "november": 6487,
      "verwandte": 6488,
      "some": 6489,
      "could": 6490,
      "ado": 6491,
      "darin": 6492,
      "könntest": 6493,
      "definition": 6494,
      "alternativen": 6495,
      "getan": 6496,
      "abbrü": 6497,
      "professione": 6498,
      "begrüßung": 6499,
      "vermeiden": 6500,
      "sachverhalt": 6501,
      "ive": 6502,
      "cos": 6503,
      "nown": 6504,
      "richtung": 6505,
      "2016": 6506,
      "wiederho": 6507,
      "1000": 6508,
      "datacloud": 6509,
      "kürze": 6510,
      "gx": 6511,
      "plug": 6512,
      "then": 6513,
      "geklärt": 6514,
      "debug": 6515,
      "regi": 6516,
      "abgespielt": 6517,
      "läuter": 6518,
      "exp": 6519,
      "seid": 6520,
      "schreib": 6521,
      "target": 6522,
      "erhöhen": 6523,
      "bspw": 6524,
      "dominik": 6525,
      "asi": 6526,
      "hann": 6527,
      "erläuter": 6528,
      "mitz": 6529,
      "achim": 6530,
      "linphone": 6531,
      "ziffer": 6532,
      "wunder": 6533,
      "krank": 6534,
      "white": 6535,
      "blen": 6536,
      "fm": 6537,
      "besch": 6538,
      "provide": 6539,
      "zahlreiche": 6540,
      "standards": 6541,
      "voicemails": 6542,
      "blockieren": 6543,
      "hausnummer": 6544,
      "ergebnis": 6545,
      "effe": 6546,
      "kap": 6547,
      "ssung": 6548,
      "jetz": 6549,
      "tickets": 6550,
      "versorg": 6551,
      "zahn": 6552,
      "123": 6553,
      "diensten": 6554,
      "subscri": 6555,
      "hilfreich": 6556,
      "abweichen": 6557,
      "xb": 6558,
      "serie": 6559,
      "logo": 6560,
      "anzulegen": 6561,
      "holger": 6562,
      "distribution": 6563,
      "cle": 6564,
      "kalen": 6565,
      "v2": 6566,
      "verpflich": 6567,
      "sascha": 6568,
      "teilnehmen": 6569,
      "grundgebühren": 6570,
      "fälle": 6571,
      "069": 6572,
      "gruppennummer": 6573,
      "stmöglichen": 6574,
      "bezeichnung": 6575,
      "bir": 6576,
      "cm": 6577,
      "job": 6578,
      "enten": 6579,
      "zugeschickt": 6580,
      "haken": 6581,
      "haften": 6582,
      "fünf": 6583,
      "indust": 6584,
      "490": 6585,
      "definieren": 6586,
      "color": 6587,
      "gö": 6588,
      "ers": 6589,
      "erle": 6590,
      "versch": 6591,
      "aufgenommen": 6592,
      "abschaltung": 6593,
      "kompatibilität": 6594,
      "engli": 6595,
      "2a": 6596,
      "zustande": 6597,
      "wiederher": 6598,
      "aga": 6599,
      "genauso": 6600,
      "meier": 6601,
      "vertrages": 6602,
      "lud": 6603,
      "einzug": 6604,
      "weiterzu": 6605,
      "durchgestellt": 6606,
      "fertig": 6607,
      "mühe": 6608,
      "dritten": 6609,
      "ausgehender": 6610,
      "autor": 6611,
      "euren": 6612,
      "offenbar": 6613,
      "benötigten": 6614,
      "vn": 6615,
      "zin": 6616,
      "besuchen": 6617,
      "themen": 6618,
      "velo": 6619,
      "plex": 6620,
      "störungs": 6621,
      "namens": 6622,
      "stimmung": 6623,
      "galaxy": 6624,
      "dachte": 6625,
      "schwar": 6626,
      "nutzern": 6627,
      "kontoauszug": 6628,
      "cast": 6629,
      "falschen": 6630,
      "verschlüsselt": 6631,
      "finanzamt": 6632,
      "thanks": 6633,
      "schützen": 6634,
      "7e": 6635,
      "direkte": 6636,
      "verknüpft": 6637,
      "beantragt": 6638,
      "konkret": 6639,
      "tablet": 6640,
      "erfahrung": 6641,
      "wolfgang": 6642,
      "security": 6643,
      "pg": 6644,
      "gelesen": 6645,
      "telephone": 6646,
      "unterb": 6647,
      "anrufliste": 6648,
      "ausgeführt": 6649,
      "öffnungs": 6650,
      "kulanz": 6651,
      "kalender": 6652,
      "cz": 6653,
      "vat": 6654,
      "schins": 6655,
      "sil": 6656,
      "überprüfung": 6657,
      "mehrmals": 6658,
      "telle": 6659,
      "einfachen": 6660,
      "registernummer": 6661,
      "echtzeit": 6662,
      "meister": 6663,
      "plant": 6664,
      "klappen": 6665,
      "erweiterung": 6666,
      "elektron": 6667,
      "brid": 6668,
      "schaue": 6669,
      "secure": 6670,
      "1e": 6671,
      "5e": 6672,
      "bern": 6673,
      "activ": 6674,
      "unknown": 6675,
      "like": 6676,
      "stumm": 6677,
      "possible": 6678,
      "dementsprechend": 6679,
      "600": 6680,
      "mau": 6681,
      "pip": 6682,
      "td": 6683,
      "unkompliz": 6684,
      "angelegenheit": 6685,
      "registered": 6686,
      "datenschutzerklärung": 6687,
      "global": 6688,
      "versehentlich": 6689,
      "''": 6690,
      "who": 6691,
      "unauthor": 6692,
      "inhalte": 6693,
      "about": 6694,
      "zahlungen": 6695,
      "zielrufnummer": 6696,
      "wählten": 6697,
      "anfordern": 6698,
      "::::": 6699,
      "sinnvoll": 6700,
      "wv": 6701,
      "eindeu": 6702,
      "robert": 6703,
      "limit": 6704,
      "unsererseits": 6705,
      "wski": 6706,
      "synchronisiert": 6707,
      "bemühungen": 6708,
      "deaktivierung": 6709,
      "umsetzung": 6710,
      "bearbeiter": 6711,
      "tom": 6712,
      "instit": 6713,
      "park": 6714,
      "gründet": 6715,
      "drückt": 6716,
      "internationalen": 6717,
      "holz": 6718,
      "120": 6719,
      "hv": 6720,
      "qx": 6721,
      "zent": 6722,
      "erhe": 6723,
      "ssmann": 6724,
      "zuhause": 6725,
      "koh": 6726,
      "abra": 6727,
      "fred": 6728,
      "gehende": 6729,
      "dankeschön": 6730,
      "nissen": 6731,
      "seitdem": 6732,
      "77777": 6733,
      "rufnummernblöcke": 6734,
      "erledigen": 6735,
      "june": 6736,
      "barth": 6737,
      "f0": 6738,
      "lon": 6739,
      "samstag": 6740,
      "folgend": 6741,
      "zoom": 6742,
      "ameter": 6743,
      "uz": 6744,
      "stabil": 6745,
      "ary": 6746,
      "cest": 6747,
      "7777777": 6748,
      "lautsprecher": 6749,
      "mandatsreferenz": 6750,
      "--": 6751,
      "1b": 6752,
      "ländern": 6753,
      "publi": 6754,
      "de73": 6755,
      "betra": 6756,
      "versteht": 6757,
      "gerecht": 6758,
      "lauten": 6759,
      "pixel": 6760,
      "laufenden": 6761,
      "copying": 6762,
      "congstar": 6763,
      "d0": 6764,
      "mr": 6765,
      "geeignet": 6766,
      "develo": 6767,
      "very": 6768,
      "überprüft": 6769,
      "leiste": 6770,
      "cloudgateway": 6771,
      "nächstmöglichen": 6772,
      "2c": 6773,
      "2g": 6774,
      "213": 6775,
      "ergeben": 6776,
      "inde": 6777,
      "weite": 6778,
      "ihk": 6779,
      "reibungs": 6780,
      "wodurch": 6781,
      "kontoeinstellungen": 6782,
      "deutscher": 6783,
      "registrierungs": 6784,
      "hängen": 6785,
      "passenden": 6786,
      "bereitstellung": 6787,
      "bekannten": 6788,
      "relevan": 6789,
      "miet": 6790,
      "unverzüglich": 6791,
      "einla": 6792,
      "verpas": 6793,
      "auftritt": 6794,
      "tab": 6795,
      "entschieden": 6796,
      "rive": 6797,
      "wiki": 6798,
      "netto": 6799,
      "edit": 6800,
      "lars": 6801,
      "ics": 6802,
      "kuschins": 6803,
      "entscheidung": 6804,
      "kontrolle": 6805,
      "hörigen": 6806,
      "gewöhn": 6807,
      "fuer": 6808,
      "gei": 6809,
      "kamp": 6810,
      "kanal": 6811,
      "gebie": 6812,
      "def": 6813,
      "mater": 6814,
      "stelling": 6815,
      "grüsse": 6816,
      "yout": 6817,
      "passte": 6818,
      "biger": 6819,
      "genutzten": 6820,
      "normalerweise": 6821,
      "fähige": 6822,
      "widerrufen": 6823,
      "szenari": 6824,
      "hannover": 6825,
      "kanz": 6826,
      "inbound": 6827,
      "hook": 6828,
      "linux": 6829,
      "wartungs": 6830,
      "erweitert": 6831,
      "corona": 6832,
      "receive": 6833,
      "jähr": 6834,
      "gbr": 6835,
      "kz": 6836,
      "lr": 6837,
      "gewechselt": 6838,
      "eingesetzt": 6839,
      "anschließen": 6840,
      "identität": 6841,
      "lizenzen": 6842,
      "prinzip": 6843,
      "##-": 6844,
      "antwortet": 6845,
      "raustelefonieren": 6846,
      "entschuldigung": 6847,
      "zzz": 6848,
      "korrigieren": 6849,
      "speicherung": 6850,
      "beinhaltet": 6851,
      "historie": 6852,
      "800": 6853,
      "ore": 6854,
      "stä": 6855,
      "coming": 6856,
      "sachbearbeiter": 6857,
      "flexible": 6858,
      "maximale": 6859,
      "bodenstation": 6860,
      "kuschinsky": 6861,
      "&#": 6862,
      "unbekannt": 6863,
      "imple": 6864,
      "manchen": 6865,
      "europa": 6866,
      "vorhandene": 6867,
      "kompatibel": 6868,
      "veröffentlich": 6869,
      "fro": 6870,
      "gf": 6871,
      "anstoßen": 6872,
      "gem": 6873,
      "umwelt": 6874,
      "besetz": 6875,
      "verzeich": 6876,
      "willig": 6877,
      "quelle": 6878,
      "caller": 6879,
      "zerti": 6880,
      "png": 6881,
      "position": 6882,
      "bestands": 6883,
      "warteschlange": 6884,
      "kanzlei": 6885,
      "3f": 6886,
      "est": 6887,
      "telefonkonferenz": 6888,
      "könig": 6889,
      "comple": 6890,
      "legung": 6891,
      "separate": 6892,
      "behörde": 6893,
      "nich": 6894,
      "nütz": 6895,
      "tie": 6896,
      "bequ": 6897,
      "sstelle": 6898,
      "starte": 6899,
      "wünscht": 6900,
      "konfigurationsanleitung": 6901,
      "jamin": 6902,
      "öffnungszeiten": 6903,
      ";-": 6904,
      "dl": 6905,
      "iso": 6906,
      "anschauen": 6907,
      "ref": 6908,
      "begrenz": 6909,
      "search": 6910,
      "linken": 6911,
      "tigler": 6912,
      "ether": 6913,
      "verknüpfen": 6914,
      "negativ": 6915,
      "hj": 6916,
      "nj": 6917,
      "dent": 6918,
      "benjamin": 6919,
      "menge": 6920,
      "bahn": 6921,
      "meinte": 6922,
      "anbieterwechsel": 6923,
      "mussten": 6924,
      "brück": 6925,
      "d6": 6926,
      "altung": 6927,
      "angeblich": 6928,
      "rechten": 6929,
      "ulrich": 6930,
      "produkten": 6931,
      "aylin": 6932,
      "ereig": 6933,
      "modernen": 6934,
      "akzeptiert": 6935,
      "versorgung": 6936,
      "rot": 6937,
      "anrufbeispiel": 6938,
      "lieb": 6939,
      "betru": 6940,
      "geräu": 6941,
      "point": 6942,
      "3e": 6943,
      "5b": 6944,
      "gläu": 6945,
      "ities": 6946,
      "rückseite": 6947,
      "222": 6948,
      "mitarbeiterin": 6949,
      "sprachkanäle": 6950,
      "auftrags": 6951,
      "schöll": 6952,
      "solv": 6953,
      "definiert": 6954,
      "basiert": 6955,
      "improve": 6956,
      "130": 6957,
      "kbit": 6958,
      "ankommt": 6959,
      "zugän": 6960,
      "mtl": 6961,
      "verlängern": 6962,
      "manuel": 6963,
      "industrie": 6964,
      "ep": 6965,
      "nachfragen": 6966,
      "busy": 6967,
      "does": 6968,
      "de73zzz": 6969,
      "bauer": 6970,
      "kä": 6971,
      "​​": 6972,
      "geho": 6973,
      "bez": 6974,
      "berich": 6975,
      "steam": 6976,
      "uri": 6977,
      "rufweiterleitung": 6978,
      "telefonkonferenzen": 6979,
      "nachteile": 6980,
      "ced": 6981,
      "cept": 6982,
      "lötz": 6983,
      "ctor": 6984,
      "mannheim": 6985,
      "gegensatz": 6986,
      "much": 6987,
      "parameter": 6988,
      "wirkung": 6989,
      "erweitern": 6990,
      "paketen": 6991,
      "planung": 6992,
      "klassischen": 6993,
      "burger": 6994,
      "available": 6995,
      "gläubiger": 6996,
      "8a": 6997,
      "jabra": 6998,
      "kit": 6999,
      "beauftrag": 7000,
      "fax2": 7001,
      "seitig": 7002,
      "eigenständig": 7003,
      "selbstständig": 7004,
      "chatbot": 7005,
      "identifiz": 7006,
      "ugh": 7007,
      "collap": 7008,
      "implemen": 7009,
      "flo": 7010,
      "gmail": 7011,
      "lind": 7012,
      "qy": 7013,
      "anleitungen": 7014,
      "inno": 7015,
      "bekomm": 7016,
      "gesche": 7017,
      "agb": 7018,
      "neuesten": 7019,
      "schief": 7020,
      "wissens": 7021,
      "dienstleistungen": 7022,
      "braun": 7023,
      "reply": 7024,
      "piped": 7025,
      "c7": 7026,
      "dbar": 7027,
      "mv": 7028,
      "ov": 7029,
      "plä": 7030,
      "rin": 7031,
      "genü": 7032,
      "ized": 7033,
      "empfehl": 7034,
      "produktivität": 7035,
      "anklopfen": 7036,
      "3b": 7037,
      "keits": 7038,
      "vers": 7039,
      "übermitteln": 7040,
      "kondition": 7041,
      "diesel": 7042,
      "netzen": 7043,
      "durchzuführen": 7044,
      "benutzeroberfläche": 7045,
      "172": 7046,
      "konfigurationsan": 7047,
      "analog": 7048,
      "basierten": 7049,
      "archite": 7050,
      "spezifi": 7051,
      "response": 7052,
      "policy": 7053,
      "völlig": 7054,
      "ethernet": 7055,
      "collapse": 7056,
      "pipedrive": 7057,
      "gsm": 7058,
      "bew": 7059,
      "ham": 7060,
      "sprozess": 7061,
      "deinst": 7062,
      "working": 7063,
      "bereitgestellt": 7064,
      "zählt": 7065,
      "fabian": 7066,
      "again": 7067,
      "kohles": 7068,
      "gst": 7069,
      "hbar": 7070,
      "reine": 7071,
      "slo": 7072,
      "dear": 7073,
      "importieren": 7074,
      "angehän": 7075,
      "hingegen": 7076,
      "selten": 7077,
      "migr": 7078,
      "prise": 7079,
      "firmensitz": 7080,
      "outet": 7081,
      "kno": 7082,
      "let": 7083,
      "übergeben": 7084,
      "would": 7085,
      "gebäu": 7086,
      "erfolgreiche": 7087,
      "europe": 7088,
      "portierungsanfrage": 7089,
      "normalen": 7090,
      "geschehen": 7091,
      "plötz": 7092,
      "erwarten": 7093,
      "lling": 7094,
      "verpasste": 7095,
      "beigefü": 7096,
      "geroutet": 7097,
      "tober": 7098,
      "träch": 7099,
      "ihrerseits": 7100,
      "drü": 7101,
      "bekannte": 7102,
      "stechnik": 7103,
      "fut": 7104,
      "ube": 7105,
      "gehabt": 7106,
      "abbuchungen": 7107,
      "wartung": 7108,
      "führende": 7109,
      "hinterlassen": 7110,
      "gebra": 7111,
      "ausgeglichen": 7112,
      "lassung": 7113,
      "mieten": 7114,
      "verknüpf": 7115,
      "forwarded": 7116,
      "…………": 7117,
      "friedrich": 7118,
      "getrennt": 7119,
      "verpflichtet": 7120,
      "ludwig": 7121,
      "fax2mail": 7122,
      "z9": 7123,
      "made": 7124,
      "beides": 7125,
      "law": 7126,
      "prohi": 7127,
      "jemanden": 7128,
      "handynummern": 7129,
      "haftung": 7130,
      "operation": 7131,
      "rj": 7132,
      "lingen": 7133,
      "base": 7134,
      "ausgezahlt": 7135,
      "share": 7136,
      "erwähnt": 7137,
      "material": 7138,
      "5a": 7139,
      "fx": 7140,
      "kreis": 7141,
      "nberg": 7142,
      "mente": 7143,
      "hoffen": 7144,
      "versions": 7145,
      "enterprise": 7146,
      "beeinträch": 7147,
      "schneider": 7148,
      "konfigurationsanleitungen": 7149,
      "prohibi": 7150,
      "pst": 7151,
      "zimmer": 7152,
      "||": 7153,
      "anstatt": 7154,
      "schil": 7155,
      "ausgleich": 7156,
      "abon": 7157,
      "rufnummernanzeige": 7158,
      "schreibe": 7159,
      "hardt": 7160,
      "analys": 7161,
      "doppelt": 7162,
      "runter": 7163,
      "ül": 7164,
      "beitrag": 7165,
      "001": 7166,
      "monitor": 7167,
      "zept": 7168,
      "spezielle": 7169,
      "gewährleisten": 7170,
      "übrigens": 7171,
      "polycom": 7172,
      "bequem": 7173,
      "vorstellen": 7174,
      "informations": 7175,
      "kontroll": 7176,
      "dinge": 7177,
      "cause": 7178,
      "besetztlampenfelder": 7179,
      "konditionen": 7180,
      "b0": 7181,
      "where": 7182,
      "tec": 7183,
      "denburg": 7184,
      "zuletzt": 7185,
      "angesehen": 7186,
      "naht": 7187,
      "999": 7188,
      "partnerprogramm": 7189,
      "vielzahl": 7190,
      "firmennamen": 7191,
      "krä": 7192,
      "einzustellen": 7193,
      "fähigen": 7194,
      "\\\\\\\"": 7195,
      "wilhel": 7196,
      "external": 7197,
      "strictly": 7198,
      "technologien": 7199,
      "note": 7200,
      "richte": 7201,
      "verification": 7202,
      "beträge": 7203,
      "startup": 7204,
      "661": 7205,
      "tippen": 7206,
      "gemeinsamen": 7207,
      "oooo": 7208,
      "beliebig": 7209,
      "pus": 7210,
      "w1": 7211,
      "stunde": 7212,
      "ausste": 7213,
      "vermitteln": 7214,
      "rats": 7215,
      "maz": 7216,
      "nachweise": 7217,
      "risi": 7218,
      "landen": 7219,
      "0800": 7220,
      "care": 7221,
      "virtual": 7222,
      "sonstige": 7223,
      "tischtelefon": 7224,
      "abbrechen": 7225,
      "results": 7226,
      "./": 7227,
      "fh": 7228,
      "vorerst": 7229,
      "vormittag": 7230,
      "body": 7231,
      "schaff": 7232,
      "rechtlichen": 7233,
      "vorwahlbereich": 7234,
      "maximilian": 7235,
      "%%": 7236,
      "dh": 7237,
      "depen": 7238,
      "vorder": 7239,
      "idden": 7240,
      "arbeitnehmer": 7241,
      "arbeitgeber": 7242,
      "taucht": 7243,
      "5060": 7244,
      "drücken": 7245,
      "prohibited": 7246,
      "air": 7247,
      "b7": 7248,
      "cri": 7249,
      "lz": 7250,
      "erstellung": 7251,
      "vermittelt": 7252,
      "manche": 7253,
      "durchaus": 7254,
      "darunter": 7255,
      "verbindlich": 7256,
      "ausgefüllt": 7257,
      "bankdaten": 7258,
      "kurzen": 7259,
      "vollständigen": 7260,
      "auslands": 7261,
      "navigation": 7262,
      "vernichten": 7263,
      "verursacht": 7264,
      "_blank": 7265,
      "ita": 7266,
      "lla": 7267,
      "rossmann": 7268,
      "elden": 7269,
      "using": 7270,
      "zahle": 7271,
      "igung": 7272,
      "listet": 7273,
      "modul": 7274,
      "früh": 7275,
      "kategorie": 7276,
      "ausprobieren": 7277,
      "gebracht": 7278,
      "p2": 7279,
      "chro": 7280,
      "gewiesen": 7281,
      "tert": 7282,
      "verwir": 7283,
      "beraten": 7284,
      "telefoniere": 7285,
      "reisen": 7286,
      "eigenes": 7287,
      "glück": 7288,
      "willst": 7289,
      "stornierung": 7290,
      "beispielen": 7291,
      "csv": 7292,
      "kostenpflichtigen": 7293,
      "................": 7294,
      "spanien": 7295,
      "stammdaten": 7296,
      "unterbrech": 7297,
      "d4": 7298,
      "range": 7299,
      "einschließlich": 7300,
      "einträge": 7301,
      "einwillig": 7302,
      "sep": 7303,
      "sprich": 7304,
      "formen": 7305,
      "fai": 7306,
      "bay": 7307,
      "gram": 7308,
      "386": 7309,
      "ablehnung": 7310,
      "gängig": 7311,
      "unterscheiden": 7312,
      "haftungsbeschränkt": 7313,
      "hx": 7314,
      "uner": 7315,
      "lade": 7316,
      "liefert": 7317,
      "pack": 7318,
      "verifikation": 7319,
      "statur": 7320,
      "kurzfristig": 7321,
      "presen": 7322,
      "viren": 7323,
      "full": 7324,
      "zwecke": 7325,
      "positiv": 7326,
      "++++++++": 7327,
      "eröffnet": 7328,
      "einheit": 7329,
      "gehalten": 7330,
      "dev": 7331,
      "before": 7332,
      "routen": 7333,
      "tastatur": 7334,
      "minim": 7335,
      "richtet": 7336,
      "dargestellt": 7337,
      "selbe": 7338,
      "klickt": 7339,
      "zwingend": 7340,
      "should": 7341,
      "anwendungs": 7342,
      "ursprünglich": 7343,
      "italien": 7344,
      "summe": 7345,
      "slack": 7346,
      "700": 7347,
      "flich": 7348,
      "uuml": 7349,
      "erh": 7350,
      "gezeigt": 7351,
      "ehrlich": 7352,
      "kler": 7353,
      "sichern": 7354,
      "höre": 7355,
      "landline": 7356,
      "münster": 7357,
      "sofortige": 7358,
      "plötzlich": 7359,
      "1c": 7360,
      "stun": 7361,
      "aufkommen": 7362,
      "dash": 7363,
      "kopp": 7364,
      "zumelden": 7365,
      "mondo": 7366,
      "obje": 7367,
      "erfolgte": 7368,
      "korrektur": 7369,
      "standortes": 7370,
      "transferieren": 7371,
      "torsten": 7372,
      "bereichen": 7373,
      "zertifiziert": 7374,
      "bedürfnisse": 7375,
      "disclosure": 7376,
      "phonerlite": 7377,
      "2l": 7378,
      "bonn": 7379,
      "clu": 7380,
      "ender": 7381,
      "geo": 7382,
      "replace": 7383,
      "aufrufen": 7384,
      "fischer": 7385,
      "keinem": 7386,
      "hnten": 7387,
      "wollten": 7388,
      "devices": 7389,
      "ländi": 7390,
      "abi_": 7391,
      "fän": 7392,
      "kle": 7393,
      "mg": 7394,
      "nür": 7395,
      "inar": 7396,
      "spielt": 7397,
      "sole": 7398,
      "telefonanbieter": 7399,
      "phonemondo": 7400,
      "7c0": 7401,
      "könntet": 7402,
      "aufgeführt": 7403,
      "gründung": 7404,
      "unbefu": 7405,
      "vergangenheit": 7406,
      "pstn": 7407,
      "a6": 7408,
      "dun": 7409,
      "ersichtlich": 7410,
      "beziehen": 7411,
      "acy": 7412,
      "nachträ": 7413,
      "vorschlag": 7414,
      "frequenz": 7415,
      "conten": 7416,
      "zellen": 7417,
      "redund": 7418,
      "ipv4": 7419,
      "ahl": 7420,
      "e2": 7421,
      "fn": 7422,
      "qg": 7423,
      "dam": 7424,
      "umleiten": 7425,
      "verkauf": 7426,
      "rainer": 7427,
      "fürs": 7428,
      "telefonische": 7429,
      "übernimmt": 7430,
      "faxversand": 7431,
      "teilte": 7432,
      "calling": 7433,
      "verwendungs": 7434,
      "regelmäß": 7435,
      "herzlich": 7436,
      "contacts": 7437,
      "räume": 7438,
      "pflichtangaben": 7439,
      "verhindern": 7440,
      "bekommst": 7441,
      "future": 7442,
      "3g": 7443,
      "erscheinen": 7444,
      "verpasst": 7445,
      "abschließ": 7446,
      "gucken": 7447,
      "rückinfo": 7448,
      "portierungen": 7449,
      "mobilrufnummern": 7450,
      "bislang": 7451,
      "pop": 7452,
      "3x": 7453,
      "722": 7454,
      "c5": 7455,
      "ning": 7456,
      "rum": 7457,
      "erkann": 7458,
      "besitzen": 7459,
      "wertige": 7460,
      "process": 7461,
      "leipz": 7462,
      "buche": 7463,
      "gui": 7464,
      "papier": 7465,
      "benutze": 7466,
      "170": 7467,
      "steuern": 7468,
      "gemeinsame": 7469,
      "innova": 7470,
      "ideal": 7471,
      "ré": 7472,
      "sg": 7473,
      "w7": 7474,
      "geöffnet": 7475,
      "bestell": 7476,
      "bedanke": 7477,
      "arz": 7478,
      "datenübertragung": 7479,
      "101": 7480,
      "aufgelegt": 7481,
      "gegebenen": 7482,
      "utm_campaign": 7483,
      "zufriedenheit": 7484,
      "separat": 7485,
      "wörter": 7486,
      "lubberger": 7487,
      "komponenten": 7488,
      "cann": 7489,
      "e1": 7490,
      "f9": 7491,
      "qz": 7492,
      "chs": 7493,
      "einbinden": 7494,
      "orien": 7495,
      "abschnitt": 7496,
      "gien": 7497,
      "webportal": 7498,
      "arbeitungs": 7499,
      "ischer": 7500,
      "================": 7501,
      "stärke": 7502,
      "satelliten": 7503,
      "355": 7504,
      "ack": 7505,
      "gmx": 7506,
      "sbc": 7507,
      "teuer": 7508,
      "macos": 7509,
      "weiss": 7510,
      "bilder": 7511,
      "webhook": 7512,
      "milli": 7513,
      "lösungs": 7514,
      "beträgt": 7515,
      "zahlungsmethode": 7516,
      "verwendeten": 7517,
      "wohnsitz": 7518,
      "gewährleistet": 7519,
      "umgebung": 7520,
      "blau": 7521,
      "jn": 7522,
      "ssel": 7523,
      "arten": 7524,
      "sogenannte": 7525,
      "telephon": 7526,
      "werner": 7527,
      "abgelaufen": 7528,
      "linien": 7529,
      "nutzungs": 7530,
      "schaltungs": 7531,
      "vollständige": 7532,
      "meistens": 7533,
      "sorge": 7534,
      "stattfinden": 7535,
      "erlaubnis": 7536,
      "tzeichen": 7537,
      "conference": 7538,
      "region": 7539,
      "deinstall": 7540,
      "einwilligung": 7541,
      "verwendungszweck": 7542,
      "leon": 7543,
      "local": 7544,
      "exportieren": 7545,
      "minutenpakete": 7546,
      "bye": 7547,
      "intu": 7548,
      "lässig": 7549,
      "bezieht": 7550,
      "fs": 7551,
      "flug": 7552,
      "ienz": 7553,
      "engin": 7554,
      "ersetzt": 7555,
      "anfallen": 7556,
      "leute": 7557,
      "ned": 7558,
      "lai": 7559,
      "ausschalten": 7560,
      "ipad": 7561,
      "quasi": 7562,
      "156": 7563,
      "kamera": 7564,
      "konferenzraum": 7565,
      "wichtigen": 7566,
      "offensichtlich": 7567,
      "kinder": 7568,
      "dj": 7569,
      "kdn": 7570,
      "lungen": 7571,
      "qn": 7572,
      "mandat": 7573,
      "nack": 7574,
      "fähr": 7575,
      "identisch": 7576,
      "utm_source": 7577,
      "born": 7578,
      "klassische": 7579,
      "arntzen": 7580,
      "improvements": 7581,
      "bv": 7582,
      "reaktion": 7583,
      "merken": 7584,
      "mev": 7585,
      "webinar": 7586,
      "troffen": 7587,
      "anwender": 7588,
      "defined": 7589,
      "jeweilige": 7590,
      "leistungsmerk": 7591,
      "erlauben": 7592,
      "reagiert": 7593,
      "bewusst": 7594,
      "unbefugte": 7595,
      "yp": 7596,
      "ansehen": 7597,
      "rela": 7598,
      "lead": 7599,
      "fazit": 7600,
      "geschieht": 7601,
      "sichtbar": 7602,
      "180": 7603,
      "kündigungsbestätigung": 7604,
      "reagieren": 7605,
      "netzteil": 7606,
      "image": 7607,
      "ful": 7608,
      "kern": 7609,
      "sv": 7610,
      "geeig": 7611,
      "absol": 7612,
      "fic": 7613,
      "wol": 7614,
      "wiederum": 7615,
      "internetzugang": 7616,
      "march": 7617,
      "oktober": 7618,
      "dortmund": 7619,
      "isches": 7620,
      "authentifiz": 7621,
      "beginnen": 7622,
      "korrekten": 7623,
      "optimieren": 7624,
      "ähnlich": 7625,
      "youtube": 7626,
      "bg": 7627,
      "bn": 7628,
      "tester": 7629,
      "insolv": 7630,
      "masch": 7631,
      "werben": 7632,
      "west": 7633,
      "genauen": 7634,
      "plz": 7635,
      "öffentliche": 7636,
      "elekt": 7637,
      "a2": 7638,
      "kro": 7639,
      "…]": 7640,
      "achen": 7641,
      "kompe": 7642,
      "vollen": 7643,
      "führten": 7644,
      "pflege": 7645,
      "adressbuch": 7646,
      "erhöht": 7647,
      "eingeschränkt": 7648,
      "dres": 7649,
      "geplant": 7650,
      "makler": 7651,
      "abrufen": 7652,
      "grenzen": 7653,
      "interessen": 7654,
      "jk": 7655,
      "ktive": 7656,
      "sw": 7657,
      "allow": 7658,
      "umgesetzt": 7659,
      "besprechen": 7660,
      "weitergegeben": 7661,
      "monday": 7662,
      "forderungs": 7663,
      "geschäftsführerin": 7664,
      "abgedeckt": 7665,
      "jose": 7666,
      "chrome": 7667,
      "engine": 7668,
      "5c": 7669,
      "jitter": 7670,
      "datenpaket": 7671,
      "meinung": 7672,
      "lernen": 7673,
      "entral": 7674,
      "kammer": 7675,
      "verschlüsselte": 7676,
      "wachstum": 7677,
      "schule": 7678,
      "bestätigungscode": 7679,
      "abonne": 7680,
      "2fax": 7681,
      "hmann": 7682,
      "verarbeitet": 7683,
      "losen": 7684,
      "side": 7685,
      "ppe": 7686,
      "favor": 7687,
      "nehmlich": 7688,
      "they": 7689,
      "2017": 7690,
      "registration": 7691,
      "garant": 7692,
      "utm_content": 7693,
      "mpel": 7694,
      "anonym": 7695,
      "hh": 7696,
      "ock": 7697,
      "uß": 7698,
      "yes": 7699,
      "tek": 7700,
      "gebrauch": 7701,
      "hafte": 7702,
      "spiel": 7703,
      "cour": 7704,
      "foli": 7705,
      "146": 7706,
      "hilfestellung": 7707,
      "einrichtungs": 7708,
      "marcus": 7709,
      "programme": 7710,
      "restguthabens": 7711,
      "changelog": 7712,
      "versicherung": 7713,
      "kündigungsfrist": 7714,
      "index": 7715,
      "still": 7716,
      "umstieg": 7717,
      "zuordnung": 7718,
      "sis": 7719,
      "auswer": 7720,
      "demie": 7721,
      "demnach": 7722,
      "fresh": 7723,
      "kasse": 7724,
      "tages": 7725,
      "irgendwas": 7726,
      "bedienen": 7727,
      "hoffmann": 7728,
      "berufs": 7729,
      "xxxxxxxxxxxxxxxx": 7730,
      "weiterzuleiten": 7731,
      "veröffentlichung": 7732,
      "leipzig": 7733,
      "xh": 7734,
      "hro": 7735,
      "reihe": 7736,
      "bud": 7737,
      "verband": 7738,
      "benutzernamen": 7739,
      "landes": 7740,
      "schreibt": 7741,
      "ziff": 7742,
      "frankreich": 7743,
      "andrea": 7744,
      "scann": 7745,
      "kostenfreie": 7746,
      "effizienz": 7747,
      "experten": 7748,
      "heutigen": 7749,
      "push": 7750,
      "bricht": 7751,
      "nc": 7752,
      "vant": 7753,
      "chan": 7754,
      "anzumelden": 7755,
      "begleichen": 7756,
      "aufent": 7757,
      "doc": 7758,
      "nix": 7759,
      "schriftliche": 7760,
      "vertriebspartner": 7761,
      "technology": 7762,
      "günstigen": 7763,
      "abbruch": 7764,
      "studie": 7765,
      "e6": 7766,
      "ited": 7767,
      "ket": 7768,
      "repe": 7769,
      "ssich": 7770,
      "section": 7771,
      "disc": 7772,
      "hergestellt": 7773,
      "reihen": 7774,
      "ake": 7775,
      "karls": 7776,
      "credit": 7777,
      "rechtliche": 7778,
      "planen": 7779,
      "tember": 7780,
      "widerruf": 7781,
      "kommuniziert": 7782,
      "boarding": 7783,
      "veröffentlicht": 7784,
      "spaß": 7785,
      "besetztzeichen": 7786,
      "replaced": 7787,
      "flow": 7788,
      "vent": 7789,
      "201": 7790,
      "freizu": 7791,
      "going": 7792,
      "absenderkennung": 7793,
      "notwendigen": 7794,
      "relevant": 7795,
      "kaum": 7796,
      "september": 7797,
      "insolvenz": 7798,
      "auth": 7799,
      "beteilig": 7800,
      "room": 7801,
      "konzept": 7802,
      "advan": 7803,
      "richter": 7804,
      "vorteilen": 7805,
      "verhältnis": 7806,
      "vulnerabil": 7807,
      "ereignisse": 7808,
      "f8": 7809,
      "qq": 7810,
      "w8": 7811,
      "wp": 7812,
      "inhalts": 7813,
      "beschreiben": 7814,
      "ache": 7815,
      "did": 7816,
      "absich": 7817,
      "founder": 7818,
      "fassung": 7819,
      "suite": 7820,
      "theore": 7821,
      "aktivierungs": 7822,
      "internetseite": 7823,
      "grundlegen": 7824,
      "sichert": 7825,
      "sicherlich": 7826,
      "171": 7827,
      "sandt": 7828,
      "späte": 7829,
      "general": 7830,
      "klicks": 7831,
      "interessant": 7832,
      "branch": 7833,
      "jörn": 7834,
      "detaillierte": 7835,
      "nürnberg": 7836,
      "bon": 7837,
      "winter": 7838,
      "geworden": 7839,
      "umfassen": 7840,
      "hackt": 7841,
      "datenblatt": 7842,
      "sagte": 7843,
      "sonn": 7844,
      "kündbar": 7845,
      "zehn": 7846,
      "kasten": 7847,
      "ticketnummer": 7848,
      "stört": 7849,
      "desking": 7850,
      "knapp": 7851,
      "kommunikationsverlauf": 7852,
      "letztlich": 7853,
      "nicole": 7854,
      "function": 7855,
      "investition": 7856,
      "limited": 7857,
      "dependen": 7858,
      "ji": 7859,
      "sf": 7860,
      "want": 7861,
      "stück": 7862,
      "vermute": 7863,
      "wofür": 7864,
      "hingewiesen": 7865,
      "rufnummernverlängerung": 7866,
      "folgendem": 7867,
      "case": 7868,
      "bestimmungen": 7869,
      "meldete": 7870,
      "versandt": 7871,
      "listung": 7872,
      "verantwortlich": 7873,
      "cookie": 7874,
      "————————": 7875,
      "vulnerable": 7876,
      "space": 7877,
      "zahnrad": 7878,
      "garantie": 7879,
      "ano": 7880,
      "incoming": 7881,
      "eins": 7882,
      "left": 7883,
      "ragen": 7884,
      "telefonfunktionen": 7885,
      "leite": 7886,
      ";;;&": 7887,
      "zweimal": 7888,
      "privacy": 7889,
      "quality": 7890,
      "gateways": 7891,
      "trial": 7892,
      "verbraucher": 7893,
      "i6": 7894,
      "nsoftphone": 7895,
      "vy": 7896,
      "prozent": 7897,
      "abgeben": 7898,
      "riffe": 7899,
      "freiburg": 7900,
      "großer": 7901,
      "wichtigste": 7902,
      "langsam": 7903,
      "felix": 7904,
      "sabine": 7905,
      "überzeugt": 7906,
      "zwischenzeitlich": 7907,
      "110": 7908,
      "e8": 7909,
      "heinz": 7910,
      "wz": 7911,
      "anst": 7912,
      "annehmlich": 7913,
      "geklingelt": 7914,
      "telef": 7915,
      "files": 7916,
      "weitergeben": 7917,
      "ignor": 7918,
      "suppor": 7919,
      "//,": 7920,
      "stehenden": 7921,
      "stören": 7922,
      "gruppenrouting": 7923,
      "günstige": 7924,
      "interessieren": 7925,
      "black": 7926,
      "uch": 7927,
      "benen": 7928,
      "aufmerk": 7929,
      "isiert": 7930,
      "dankbar": 7931,
      "problematik": 7932,
      "sprachübertragung": 7933,
      "100er": 7934,
      "routers": 7935,
      "existieren": 7936,
      "vertreter": 7937,
      "[…]": 7938,
      "gelegt": 7939,
      "iting": 7940,
      "verändern": 7941,
      "übergreifen": 7942,
      "hler": 7943,
      "poe": 7944,
      "teilungen": 7945,
      "legal": 7946,
      "ideen": 7947,
      "vergangenen": 7948,
      "europäischen": 7949,
      "deckung": 7950,
      "aufmerksam": 7951,
      "b1": 7952,
      "c9": 7953,
      "ii": 7954,
      "tha": 7955,
      "schlagen": 7956,
      "bela": 7957,
      "zustand": 7958,
      "zuständigen": 7959,
      "make": 7960,
      "angeb": 7961,
      "partners": 7962,
      "evn": 7963,
      "joachim": 7964,
      "berliner": 7965,
      "storno": 7966,
      "bandbreiten": 7967,
      "jenni": 7968,
      "interessiert": 7969,
      "pickup": 7970,
      "hü": 7971,
      "sn": 7972,
      "zel": 7973,
      "woj": 7974,
      "try": 7975,
      "geschützt": 7976,
      "klingt": 7977,
      "benachrichtigen": 7978,
      "definitiv": 7979,
      "february": 7980,
      "öffentlichen": 7981,
      "valentin": 7982,
      "rechenzentrum": 7983,
      "prakti": 7984,
      "reduzieren": 7985,
      "abbrüche": 7986,
      "telephony": 7987,
      "kompeten": 7988,
      "ziffern": 7989,
      "vulnerabilities": 7990,
      "jy": 7991,
      "schmitt": 7992,
      "veränderungen": 7993,
      "ierbare": 7994,
      "abgeschaltet": 7995,
      ";;&": 7996,
      "schaften": 7997,
      "signale": 7998,
      "connection": 7999,
      "timeout": 8000,
      "grenze": 8001,
      "erinnern": 8002,
      "speziell": 8003,
      "rechtsanwalt": 8004,
      "################################": 8005,
      "kaiser": 8006,
      "recording": 8007,
      "sprobleme": 8008,
      "beschäftigt": 8009,
      "diverse": 8010,
      "reihenfolge": 8011,
      "988": 8012,
      "f4": 8013,
      "nation": 8014,
      "into": 8015,
      "innov": 8016,
      "ged": 8017,
      "vermittler": 8018,
      "andré": 8019,
      "komfort": 8020,
      "entspricht": 8021,
      "frag": 8022,
      "128": 8023,
      "tests": 8024,
      "first": 8025,
      "mittlungs": 8026,
      "zentralen": 8027,
      "kontaktiert": 8028,
      "forwarding": 8029,
      "annel": 8030,
      "kraft": 8031,
      "einladung": 8032,
      "verpassten": 8033,
      "ax": 8034,
      "dx": 8035,
      "e9": 8036,
      "f5": 8037,
      "snack": 8038,
      "unannehmlich": 8039,
      "umber": 8040,
      "beur": 8041,
      "beob": 8042,
      "bericht": 8043,
      "steckt": 8044,
      "lator": 8045,
      "zeitige": 8046,
      "thei": 8047,
      "nica": 8048,
      "username": 8049,
      "versionen": 8050,
      "wicklung": 8051,
      "direkten": 8052,
      "faktoren": 8053,
      "verzögerung": 8054,
      "jonas": 8055,
      "englisch": 8056,
      "wilhelm": 8057,
      "kdnr": 8058,
      "forderungsmanagement": 8059,
      "blo": 8060,
      "caus": 8061,
      "hq": 8062,
      "joh": 8063,
      "ola": 8064,
      "vt": 8065,
      "state": 8066,
      "stari": 8067,
      "ree": 8068,
      "map": 8069,
      "robin": 8070,
      "bildung": 8071,
      "freien": 8072,
      "product": 8073,
      "dringen": 8074,
      "systemtelefone": 8075,
      "erneuten": 8076,
      "unterdrückung": 8077,
      "süd": 8078,
      "jennifer": 8079,
      "cn": 8080,
      "chtern": 8081,
      "ausdrück": 8082,
      "werbung": 8083,
      "portfoli": 8084,
      "////": 8085,
      "klasse": 8086,
      "=\"\"": 8087,
      "destin": 8088,
      "bremen": 8089,
      "stripe": 8090,
      "addressee": 8091,
      "provided": 8092,
      "dresden": 8093,
      "sonntag": 8094,
      "c0": 8095,
      "kru": 8096,
      "ane": 8097,
      "augs": 8098,
      "diger": 8099,
      "bits": 8100,
      "vic": 8101,
      "finan": 8102,
      "anton": 8103,
      "testweise": 8104,
      "automation": 8105,
      "wartefeld": 8106,
      "heruntergeladen": 8107,
      "automatisiert": 8108,
      "rheinstraße": 8109,
      "issue": 8110,
      "causing": 8111,
      "fiel": 8112,
      "nord": 8113,
      "ving": 8114,
      "ausnahme": 8115,
      "herausge": 8116,
      "vorhin": 8117,
      "trend": 8118,
      "grunde": 8119,
      "7c01": 8120,
      "zurückzu": 8121,
      "arbeitsp": 8122,
      "fehlende": 8123,
      "_in": 8124,
      "thin": 8125,
      "eröffnen": 8126,
      "beach": 8127,
      "vertreten": 8128,
      "sound": 8129,
      "wirken": 8130,
      "rid": 8131,
      "contra": 8132,
      "bestätige": 8133,
      "walter": 8134,
      "zurückgesetzt": 8135,
      "gratis": 8136,
      "prefer": 8137,
      "cancel": 8138,
      "ci6": 8139,
      "kreditkarten": 8140,
      "entgegennehmen": 8141,
      "kanälen": 8142,
      "haupts": 8143,
      "adobe": 8144,
      "abschließend": 8145,
      "erkannt": 8146,
      "kör": 8147,
      "gedacht": 8148,
      "defe": 8149,
      "verordnung": 8150,
      "kol": 8151,
      "bestimmen": 8152,
      "benutzerin": 8153,
      "brochen": 8154,
      "übersichtlich": 8155,
      "unterschiedlich": 8156,
      "thorsten": 8157,
      "türkei": 8158,
      "statistiken": 8159,
      "unauthorized": 8160,
      "institut": 8161,
      "cannot": 8162,
      "brechen": 8163,
      "fz": 8164,
      "m2": 8165,
      "put": 8166,
      "rfc": 8167,
      "v8": 8168,
      "w5": 8169,
      "öfter": 8170,
      "erhalt": 8171,
      "scho": 8172,
      "ausländi": 8173,
      "werbe": 8174,
      "vorzunehmen": 8175,
      "mob": 8176,
      "grüssen": 8177,
      "vertragsende": 8178,
      "transmi": 8179,
      "enthaltenen": 8180,
      "mindestvertragslaufzeit": 8181,
      "effizienter": 8182,
      "unannehmlichkeiten": 8183,
      "enden": 8184,
      "intent": 8185,
      "genug": 8186,
      "vervielfäl": 8187,
      "spo": 8188,
      "alleine": 8189,
      "entdecken": 8190,
      "angezei": 8191,
      "bilden": 8192,
      "extre": 8193,
      "setzten": 8194,
      "höhere": 8195,
      "553": 8196,
      "erfolgreichen": 8197,
      "gemeint": 8198,
      "480": 8199,
      "gebuchte": 8200,
      "gegebenenfalls": 8201,
      "zufügen": 8202,
      "zuweisung": 8203,
      "met": 8204,
      "differ": 8205,
      "prozesse": 8206,
      "hej": 8207,
      "fikat": 8208,
      "thing": 8209,
      "eingezogen": 8210,
      "volker": 8211,
      "maria": 8212,
      "akzeptieren": 8213,
      "123456": 8214,
      "weitergeleitete": 8215,
      "förder": 8216,
      "transmission": 8217,
      "6a": 8218,
      "e5": 8219,
      "ela": 8220,
      "mj": 8221,
      "scro": 8222,
      "ägen": 8223,
      "beschle": 8224,
      "imme": 8225,
      "überwach": 8226,
      "bisschen": 8227,
      "dazuge": 8228,
      "dokumenten": 8229,
      "verfügbaren": 8230,
      "familie": 8231,
      "skalierbar": 8232,
      "gebiet": 8233,
      "720": 8234,
      "brie": 8235,
      "ise": 8236,
      "w6": 8237,
      "ief": 8238,
      "gegründet": 8239,
      "verschie": 8240,
      "auflistung": 8241,
      "fehle": 8242,
      "trage": 8243,
      "busch": 8244,
      "ssed": 8245,
      "112": 8246,
      "seitige": 8247,
      "passwörter": 8248,
      "ience": 8249,
      "ciak": 8250,
      "mutter": 8251,
      "generelle": 8252,
      "fähigkeit": 8253,
      "physische": 8254,
      "dalason": 8255,
      "primär": 8256,
      "contents": 8257,
      "engineer": 8258,
      "dependency": 8259,
      "-##": 8260,
      "cho": 8261,
      "belegt": 8262,
      "sekunde": 8263,
      "ausgeschlossen": 8264,
      "angesprochen": 8265,
      "funktionsweise": 8266,
      "schlägt": 8267,
      "benutzerkonto": 8268,
      "technischer": 8269,
      "gründer": 8270,
      "nesday": 8271,
      "schnittstellen": 8272,
      "herausforderungen": 8273,
      "improved": 8274,
      "wednesday": 8275,
      "angelegten": 8276,
      "lindner": 8277,
      "empfehlung": 8278,
      "1ha": 8279,
      "b2": 8280,
      "dz": 8281,
      "ónica": 8282,
      "anwahl": 8283,
      "gewählte": 8284,
      "ault": 8285,
      "bedeut": 8286,
      "zulässig": 8287,
      "maier": 8288,
      "beigefügt": 8289,
      "karo": 8290,
      "anschluß": 8291,
      "gelte": 8292,
      "anrufenden": 8293,
      "preisen": 8294,
      "standardmäßig": 8295,
      "häufiger": 8296,
      "785": 8297,
      "drittanbieter": 8298,
      "erleichtern": 8299,
      "wojciak": 8300,
      "d5": 8301,
      "fmc": 8302,
      "gä": 8303,
      "jx": 8304,
      "pv": 8305,
      "deln": 8306,
      "ungül": 8307,
      "beabsich": 8308,
      "vermerkt": 8309,
      "task": 8310,
      "übersenden": 8311,
      "rechnet": 8312,
      "führte": 8313,
      "kommenden": 8314,
      "buchungs": 8315,
      "brauchte": 8316,
      "vertragsnummer": 8317,
      "signature": 8318,
      "zendesk": 8319,
      "fü": 8320,
      "schweizer": 8321,
      "ergänz": 8322,
      "netzwerke": 8323,
      "arztp": 8324,
      "hrough": 8325,
      "theoretisch": 8326,
      "_1": 8327,
      "nungen": 8328,
      "ui": 8329,
      "☆☆": 8330,
      "schwe": 8331,
      "unterbrochen": 8332,
      "exe": 8333,
      "autoprovisionierung": 8334,
      "zahlverfahren": 8335,
      "personalis": 8336,
      "mobilfunknummern": 8337,
      "anrufende": 8338,
      "hinzubuchen": 8339,
      "ground": 8340,
      "berechnen": 8341,
      "restlichen": 8342,
      "fehlenden": 8343,
      "managerin": 8344,
      "parallele": 8345,
      "bewerten": 8346,
      "suchbegriff": 8347,
      "unterdrückt": 8348,
      "hg4b": 8349,
      "praktisch": 8350,
      "z9hg4b": 8351,
      "telefónica": 8352,
      "ai": 8353,
      "cam": 8354,
      "snummer": 8355,
      "erster": 8356,
      "inen": 8357,
      "dete": 8358,
      "next": 8359,
      "lohnt": 8360,
      "dik": 8361,
      "wieviel": 8362,
      "endpunkt": 8363,
      "marke": 8364,
      "empfie": 8365,
      "zurückrufen": 8366,
      "nächst": 8367,
      "elemente": 8368,
      "archiv": 8369,
      "ability": 8370,
      "größere": 8371,
      "nachträglich": 8372,
      "cat": 8373,
      "einverstanden": 8374,
      "dagegen": 8375,
      "becker": 8376,
      "verteilung": 8377,
      "auflegen": 8378,
      "forma": 8379,
      "zeitnahe": 8380,
      "transpar": 8381,
      "bria": 8382,
      "rechtsanwä": 8383,
      "strobel": 8384,
      "surfen": 8385,
      "initiation": 8386,
      "bestandskunden": 8387,
      "arztpra": 8388,
      "bler": 8389,
      "ccount": 8390,
      "hir": 8391,
      "ktiver": 8392,
      "yn": 8393,
      "chtet": 8394,
      "zuständig": 8395,
      "seq": 8396,
      "mes": 8397,
      "ausstat": 8398,
      "unklar": 8399,
      "nblock": 8400,
      "reichweite": 8401,
      "handel": 8402,
      "sätze": 8403,
      "laufe": 8404,
      "schreitung": 8405,
      "werktage": 8406,
      "zertifizierung": 8407,
      "anzupassen": 8408,
      "zahlungsbeleg": 8409,
      "beratungs": 8410,
      "quick": 8411,
      "moritz": 8412,
      "kriter": 8413,
      "preferred": 8414,
      "empfiehlt": 8415,
      "cla": 8416,
      "tv": 8417,
      "ergibt": 8418,
      "erfüllt": 8419,
      "gth": 8420,
      "auszahlen": 8421,
      "fokus": 8422,
      "wifi": 8423,
      "klicke": 8424,
      "gesetzlich": 8425,
      "näher": 8426,
      "lebens": 8427,
      "tauchen": 8428,
      "umständen": 8429,
      "verbleiben": 8430,
      "unkompliziert": 8431,
      "sachbearbeiter_in": 8432,
      "karlsruhe": 8433,
      "7ct": 8434,
      "9a": 8435,
      "aden": 8436,
      "ea": 8437,
      "gq": 8438,
      "trei": 8439,
      "realisieren": 8440,
      "verarbeiten": 8441,
      "elin": 8442,
      "abschalten": 8443,
      "kontin": 8444,
      "starface": 8445,
      "vereinbart": 8446,
      "notizen": 8447,
      "fikations": 8448,
      "ukra": 8449,
      "herkömmliche": 8450,
      "party": 8451,
      "zertifikat": 8452,
      "dunbar": 8453,
      "f3": 8454,
      "orfer": 8455,
      "veranst": 8456,
      "total": 8457,
      "nachfolgend": 8458,
      "added": 8459,
      "sul": 8460,
      "worauf": 8461,
      "ulm": 8462,
      "schonmal": 8463,
      "geschäftszeiten": 8464,
      "gegenseite": 8465,
      "officer": 8466,
      "kennwort": 8467,
      "arbeitsalltag": 8468,
      "schlechter": 8469,
      "harald": 8470,
      "gespeicher": 8471,
      "projekte": 8472,
      "unbegrenzt": 8473,
      "arbeitsplä": 8474,
      "vervielfältigung": 8475,
      "bti": 8476,
      "umsetzen": 8477,
      "ausgelöst": 8478,
      "anrufbeispiele": 8479,
      "formation": 8480,
      "barkeit": 8481,
      "kenne": 8482,
      "join": 8483,
      "paketverlu": 8484,
      "displayed": 8485,
      "sicherheitsgründen": 8486,
      "trifft": 8487,
      "wmda": 8488,
      "develop": 8489,
      "e7": 8490,
      "€,": 8491,
      "ersatz": 8492,
      "zustellung": 8493,
      "sieg": 8494,
      "bene": 8495,
      "sommer": 8496,
      "ausbau": 8497,
      "könne": 8498,
      "attra": 8499,
      "heut": 8500,
      "allein": 8501,
      "modem": 8502,
      "hout": 8503,
      "datensnack": 8504,
      "rückgängig": 8505,
      "thurs": 8506,
      "korb": 8507,
      "3d8e": 8508,
      "show": 8509,
      "dreier": 8510,
      "steinbeck": 8511,
      "warteschleifen": 8512,
      "c4wl": 8513,
      "besitzt": 8514,
      "schwarz": 8515,
      "angebunden": 8516,
      "bedeutung": 8517,
      "thursday": 8518,
      "(„": 8519,
      "brig": 8520,
      "cq": 8521,
      "desto": 8522,
      "timo": 8523,
      "umzi": 8524,
      "vereinfach": 8525,
      "length": 8526,
      "entstanden": 8527,
      "lösche": 8528,
      "richtlinien": 8529,
      "aktivitäten": 8530,
      "fallback": 8531,
      "brun": 8532,
      "müss": 8533,
      "partnerschaft": 8534,
      "graf": 8535,
      "abgezogen": 8536,
      "muß": 8537,
      "quali": 8538,
      "servern": 8539,
      "irgendwann": 8540,
      "wfpb": 8541,
      "potenzial": 8542,
      "bahnhof": 8543,
      "axel": 8544,
      "bidden": 8545,
      "nad": 8546,
      "äre": 8547,
      "insofern": 8548,
      "bezahl": 8549,
      "sible": 8550,
      "imc4wl": 8551,
      "acro": 8552,
      "perdu": 8553,
      "wijo": 8554,
      "zeitigen": 8555,
      "smann": 8556,
      "7cunknown": 8557,
      "einstellungs": 8558,
      "partnern": 8559,
      "ausgestattet": 8560,
      "einzigen": 8561,
      "iv2l": 8562,
      "joiv2l": 8563,
      "wwilcj": 8564,
      "verzichten": 8565,
      "steigern": 8566,
      "mn0": 8567,
      "schwierig": 8568,
      "horst": 8569,
      "satte": 8570,
      "sb3d8e": 8571,
      "xvci6": 8572,
      "gzsb3d8e": 8573,
      "yjwijo": 8574,
      "qijoiv2l": 8575,
      "dashboard": 8576,
      "z9hg4bk": 8577,
      "7ctwfpb": 8578,
      "wwilcjxvci6": 8579,
      "gzsb3d8eyjwijo": 8580,
      "qijoiv2lumzi": 8581,
      "7ctwfpbgzsb3d8eyjwijo": 8582,
      "wwilcjxvci6mn0": 8583,
      "7ctwfpbgzsb3d8eyjwijoimc4wl": 8584,
      "tn": 8585,
      "öne": 8586,
      "unerlaub": 8587,
      "damm": 8588,
      "realisiert": 8589,
      "umfeld": 8590,
      "sseite": 8591,
      "seni": 8592,
      "forbidden": 8593,
      "perso": 8594,
      "portierten": 8595,
      "mobilgerät": 8596,
      "jawmda": 8597,
      "ik1ha": 8598,
      "würdig": 8599,
      "zweites": 8600,
      "eigener": 8601,
      "notfall": 8602,
      "fordern": 8603,
      "kurzer": 8604,
      "vorherige": 8605,
      "generiert": 8606,
      "ilcjbti": 8607,
      "ilcjqijoiv2lumzi": 8608,
      "ausführliche": 8609,
      "einzelverbindungsnachweis": 8610,
      "bezgl": 8611,
      "gebäude": 8612,
      "ik1hawwilcjxvci6mn0": 8613,
      "4x": 8614,
      "802": 8615,
      "lam": 8616,
      "tue": 8617,
      "wx": 8618,
      "chief": 8619,
      "zuschicken": 8620,
      "lasse": 8621,
      "angehängt": 8622,
      "frem": 8623,
      "neueste": 8624,
      "173": 8625,
      "kompletten": 8626,
      "täglich": 8627,
      "draht": 8628,
      "garantieren": 8629,
      "i6ik1hawwilcjxvci6mn0": 8630,
      "7ctwfpbgzsb3d8eyjwijoimc4wljawmda": 8631,
      "ilcjqijoiv2lumziilcjbti": 8632,
      "+,": 8633,
      "anbinden": 8634,
      "beid": 8635,
      "mem": 8636,
      "feste": 8637,
      "vorüber": 8638,
      "cet": 8639,
      "dual": 8640,
      "zweifel": 8641,
      "signatur": 8642,
      "skill": 8643,
      "kirchen": 8644,
      "01579": 8645,
      "verzeichnis": 8646,
      "portfolio": 8647,
      "jq": 8648,
      "jz": 8649,
      "non": 8650,
      "ncontrol": 8651,
      "w2": 8652,
      "init": 8653,
      "gewi": 8654,
      "fran": 8655,
      "schlicht": 8656,
      "111": 8657,
      "freiheit": 8658,
      "pots": 8659,
      "228": 8660,
      "weisungen": 8661,
      "mitarbeiters": 8662,
      "zentrum": 8663,
      "lautstärke": 8664,
      "fristgerecht": 8665,
      "integrierte": 8666,
      "kirch": 8667,
      "ausweiskopie": 8668,
      "bewertung": 8669,
      "konkrete": 8670,
      "lüt": 8671,
      "protected": 8672,
      "favoriten": 8673,
      "repeater": 8674,
      "augsburg": 8675,
      "7ctwfpbgzsb3d8eyjwijoimc4wljawmdailcjqijoiv2lumziilcjbti": 8676,
      "tsch": 8677,
      "zö": 8678,
      "tex": 8679,
      "stimme": 8680,
      "align": 8681,
      "belle": 8682,
      "seat": 8683,
      "benann": 8684,
      "roy": 8685,
      "sogenannten": 8686,
      "ltd": 8687,
      "abbestellen": 8688,
      "unternehmer": 8689,
      "ingo": 8690,
      "aktiver": 8691,
      "rechnungsdaten": 8692,
      "entwickeln": 8693,
      "mp3": 8694,
      "wohnadresse": 8695,
      "vereinbarung": 8696,
      "vertriebspartnerschaft": 8697,
      "b5": 8698,
      "kk": 8699,
      "mz": 8700,
      "swald": 8701,
      "ausser": 8702,
      "ness": 8703,
      "spunk": 8704,
      "wohin": 8705,
      "wähle": 8706,
      "plat": 8707,
      "portale": 8708,
      "starke": 8709,
      "instant": 8710,
      "erforderlichen": 8711,
      "unabhängige": 8712,
      "null": 8713,
      "spora": 8714,
      "7ctwfpbgzsb3d8eyjwijoimc4wljawmdailcjqijoiv2lumziilcjbtii6ik1hawwilcjxvci6mn0": 8715,
      "\"?": 8716,
      "*.": 8717,
      "0a": 8718,
      "d146": 8719,
      "kri": 8720,
      "t0": 8721,
      "ves": 8722,
      "onboarding": 8723,
      "gestellten": 8724,
      "denk": 8725,
      "umgang": 8726,
      "roland": 8727,
      "todo": 8728,
      "mehrwert": 8729,
      "2014": 8730,
      "gast": 8731,
      "special": 8732,
      "genutzte": 8733,
      "hochwertige": 8734,
      "leistungsbeschreibung": 8735,
      "erstes": 8736,
      "contained": 8737,
      "abile": 8738,
      "hs_": 8739,
      "garantiert": 8740,
      "shell": 8741,
      "disclai": 8742,
      "0z": 8743,
      "scan": 8744,
      "xr": 8745,
      "ena": 8746,
      "erkennt": 8747,
      "erzeu": 8748,
      "umgeleitet": 8749,
      "versprechen": 8750,
      "ausgestellt": 8751,
      "ppert": 8752,
      "ask": 8753,
      "suc": 8754,
      "darm": 8755,
      "handlung": 8756,
      "exkl": 8757,
      "2222": 8758,
      "kontaktformular": 8759,
      "works": 8760,
      "protokolle": 8761,
      "lfte": 8762,
      "polizei": 8763,
      "ready": 8764,
      "größeren": 8765,
      "court": 8766,
      "briefe": 8767,
      "disclaimer": 8768,
      ".\"": 8769,
      "efax": 8770,
      "tina": 8771,
      "enor": 8772,
      "geheim": 8773,
      "gestört": 8774,
      "ark": 8775,
      "rüger": 8776,
      "weber": 8777,
      "finance": 8778,
      "2011": 8779,
      "ausgefüll": 8780,
      "without": 8781,
      "steiger": 8782,
      "verbesserung": 8783,
      "aufsichtsbehörde": 8784,
      "jetzigen": 8785,
      "default": 8786,
      "verknüpfung": 8787,
      "?!": 8788,
      "fq": 8789,
      "anschaff": 8790,
      "gesteuer": 8791,
      "decor": 8792,
      "vermittlungs": 8793,
      "sem": 8794,
      "telefonischen": 8795,
      "img": 8796,
      "atten": 8797,
      "lief": 8798,
      "final": 8799,
      "schema": 8800,
      "125": 8801,
      "kundennummern": 8802,
      "aktueller": 8803,
      "grafi": 8804,
      "ernst": 8805,
      "ortsvorwahl": 8806,
      "eingerich": 8807,
      "config": 8808,
      "gänge": 8809,
      "fälsch": 8810,
      "click2": 8811,
      "einschränkung": 8812,
      "hörige": 8813,
      "src": 8814,
      "sarah": 8815,
      "public": 8816,
      "brigitte": 8817,
      "hs_automation": 8818,
      "dresse": 8819,
      "erwartet": 8820,
      "hermann": 8821,
      "übergang": 8822,
      "übermittel": 8823,
      "freischalt": 8824,
      "auerswald": 8825,
      "hälfte": 8826,
      "kontaktaufnahme": 8827,
      "berechnung": 8828,
      "basieren": 8829,
      "verantwortlichen": 8830,
      "zwecks": 8831,
      "niederlassung": 8832,
      "tauschen": 8833,
      "betreffenden": 8834,
      "bedauerlicherweise": 8835,
      "217": 8836,
      "7a": 8837,
      "mind": 8838,
      "sau": 8839,
      "gere": 8840,
      "impress": 8841,
      "unterliegen": 8842,
      "wenige": 8843,
      "datenverarbeitung": 8844,
      "pool": 8845,
      "gasse": 8846,
      "kolleg": 8847,
      "portierende": 8848,
      "produktberatung": 8849,
      "gesprächsqualität": 8850,
      "gestaltung": 8851,
      "light": 8852,
      "hoffentlich": 8853,
      "regulär": 8854,
      "ehemal": 8855,
      "wiederholung": 8856,
      "ssicher": 8857,
      "decoration": 8858,
      "lc": 8859,
      "ns": 8860,
      "teur": 8861,
      "einwahl": 8862,
      "deff": 8863,
      "befinde": 8864,
      "mains": 8865,
      "aufforderung": 8866,
      "abhören": 8867,
      "vice": 8868,
      "rückerstattung": 8869,
      "2015": 8870,
      "sinne": 8871,
      "thu": 8872,
      "opt": 8873,
      "good": 8874,
      "wollt": 8875,
      "nutzers": 8876,
      "äußer": 8877,
      "mehrfacher": 8878,
      "schaltfläche": 8879,
      "festgelegt": 8880,
      "europäische": 8881,
      "────────": 8882,
      "absolut": 8883,
      "kontinu": 8884,
      "impressum": 8885,
      "b3": 8886,
      "blä": 8887,
      "rausge": 8888,
      "gewin": 8889,
      "hagen": 8890,
      "lot": 8891,
      "proper": 8892,
      "leisten": 8893,
      "untersagt": 8894,
      "bus": 8895,
      "life": 8896,
      "wasser": 8897,
      "zurzeit": 8898,
      "endgerätes": 8899,
      "127": 8900,
      "ziemlich": 8901,
      "prima": 8902,
      "briefkasten": 8903,
      "hinzuzufügen": 8904,
      "stedt": 8905,
      "schulz": 8906,
      "erweiterungs": 8907,
      "wundert": 8908,
      "kauft": 8909,
      "navigieren": 8910,
      "dg37": 8911,
      "cseq": 8912,
      "h3": 8913,
      "hes": 8914,
      "rer": 8915,
      "ult": 8916,
      "eing": 8917,
      "einspar": 8918,
      "report": 8919,
      "umgehen": 8920,
      "bearbeitungs": 8921,
      "verspä": 8922,
      "halber": 8923,
      "imp": 8924,
      "ausgang": 8925,
      "anrufziel": 8926,
      "entsteht": 8927,
      "grünen": 8928,
      "lines": 8929,
      "dom": 8930,
      "jana": 8931,
      "dienstleistung": 8932,
      "zugehörigen": 8933,
      "spec": 8934,
      "berechtigt": 8935,
      "zukünftige": 8936,
      "trennen": 8937,
      "kassel": 8938,
      "zählen": 8939,
      "szenario": 8940,
      "platform": 8941,
      "6f": 8942,
      "amer": 8943,
      "….": 8944,
      "fügt": 8945,
      "senc": 8946,
      "nachnamen": 8947,
      "005": 8948,
      "118": 8949,
      "products": 8950,
      "schafft": 8951,
      "flats": 8952,
      "langer": 8953,
      "pia": 8954,
      "basiertes": 8955,
      "entschuldige": 8956,
      "applik": 8957,
      "warteschlangen": 8958,
      "expliz": 8959,
      "extrem": 8960,
      ";}": 8961,
      "gv": 8962,
      "pho": 8963,
      "sco": 8964,
      "tkg": 8965,
      "vp": 8966,
      "stabile": 8967,
      "davor": 8968,
      "terweise": 8969,
      "vernetz": 8970,
      "laten": 8971,
      "nenne": 8972,
      "acht": 8973,
      "kundennr": 8974,
      "usste": 8975,
      "208": 8976,
      "bares": 8977,
      "webinterface": 8978,
      "laura": 8979,
      "langu": 8980,
      "outgoing": 8981,
      "baum": 8982,
      "wireless": 8983,
      "arbeitszeit": 8984,
      "privatperson": 8985,
      "jedenfalls": 8986,
      "steil": 8987,
      "debug0": 8988,
      "development": 8989,
      "az": 8990,
      "aachen": 8991,
      "flu": 8992,
      "“-": 8993,
      "ansatz": 8994,
      "umfirmierung": 8995,
      "aufgabe": 8996,
      "telefontermin": 8997,
      "absprache": 8998,
      "nachhal": 8999,
      "fox": 9000,
      "willi": 9001,
      "hinweisen": 9002,
      "gabrie": 9003,
      "forward": 9004,
      "pascal": 9005,
      "branche": 9006,
      "stift": 9007,
      "_hsenc": 9008,
      "kranken": 9009,
      "pläne": 9010,
      "scannen": 9011,
      "sattelite": 9012,
      "eber": 9013,
      "git": 9014,
      "maus": 9015,
      "tto": 9016,
      "einladen": 9017,
      "rel": 9018,
      "zutage": 9019,
      "haf": 9020,
      "aufheben": 9021,
      "wirkt": 9022,
      "esday": 9023,
      "ausführen": 9024,
      "wett": 9025,
      "hinsichtlich": 9026,
      "126": 9027,
      "sicheren": 9028,
      "buchbar": 9029,
      "buchsta": 9030,
      "dienen": 9031,
      "petra": 9032,
      "norbert": 9033,
      "385": 9034,
      "ärger": 9035,
      "vertriebs": 9036,
      "pandemie": 9037,
      "schäfer": 9038,
      "regulator": 9039,
      "assistenz": 9040,
      "kürzel": 9041,
      "tuesday": 9042,
      "correctly": 9043,
      "identifizieren": 9044,
      "brü": 9045,
      "björn": 9046,
      "central": 9047,
      "hre": 9048,
      "einsetzen": 9049,
      "reaktivieren": 9050,
      "behilf": 9051,
      "arg": 9052,
      "isten": 9053,
      "ausfüllen": 9054,
      "motiv": 9055,
      "duis": 9056,
      "funktionierte": 9057,
      "durchstellen": 9058,
      "faxanschluss": 9059,
      "testrufnummern": 9060,
      "strong": 9061,
      "verträgen": 9062,
      "heimer": 9063,
      "zoll": 9064,
      "zugangs": 9065,
      "speak": 9066,
      "spezial": 9067,
      "friday": 9068,
      "hua": 9069,
      "aussicht": 9070,
      "automatisierte": 9071,
      "powershell": 9072,
      "satellit": 9073,
      "erleb": 9074,
      "bridge": 9075,
      "auswertung": 9076,
      "kriterien": 9077,
      "heutzutage": 9078,
      "kem": 9079,
      "mun": 9080,
      "gezogen": 9081,
      "schte": 9082,
      "umfrage": 9083,
      "roman": 9084,
      "stempel": 9085,
      "toll": 9086,
      "konton": 9087,
      "tiven": 9088,
      "stattgefunden": 9089,
      "unterschiede": 9090,
      "mitgliedern": 9091,
      "rufnummernblocks": 9092,
      "schäden": 9093,
      "mario": 9094,
      "ähnliches": 9095,
      "feierabend": 9096,
      "beliebige": 9097,
      "behilflich": 9098,
      "3j": 9099,
      "m5": 9100,
      "mange": 9101,
      "pur": 9102,
      "“)": 9103,
      "anwählen": 9104,
      "eingebunden": 9105,
      "umfasst": 9106,
      "sozial": 9107,
      "probe": 9108,
      "rufnummerportierung": 9109,
      "nachschauen": 9110,
      "verbrei": 9111,
      "sammel": 9112,
      "115": 9113,
      "geschäftliche": 9114,
      "164": 9115,
      "lande": 9116,
      "walts": 9117,
      "standenen": 9118,
      "garten": 9119,
      "werksein": 9120,
      "einzeln": 9121,
      "otto": 9122,
      "vereins": 9123,
      "oftmals": 9124,
      "verbindungsaufbau": 9125,
      "deleted": 9126,
      "branchen": 9127,
      "sofortiger": 9128,
      "messenger": 9129,
      "~~~~": 9130,
      "risiko": 9131,
      "abonnement": 9132,
      "7d": 9133,
      "9c": 9134,
      ";:": 9135,
      "quellen": 9136,
      "rit": 9137,
      "ues": 9138,
      "wusste": 9139,
      "eid": 9140,
      "rede": 9141,
      "neo": 9142,
      "sieben": 9143,
      "telefongespräche": 9144,
      "herstellen": 9145,
      "abgelöst": 9146,
      "jegliche": 9147,
      "mobilteile": 9148,
      "exakt": 9149,
      "margin": 9150,
      "gelan": 9151,
      "kleines": 9152,
      "sicherstellen": 9153,
      "geschäftsleitung": 9154,
      "kamen": 9155,
      "sparkasse": 9156,
      "optimale": 9157,
      "yives": 9158,
      ":-)": 9159,
      "single": 9160,
      "verwirr": 9161,
      "abi_arm": 9162,
      "success": 9163,
      "language": 9164,
      "920": 9165,
      "a0": 9166,
      "f2": 9167,
      "yu": 9168,
      "enet": 9169,
      "erteilt": 9170,
      "augen": 9171,
      "steck": 9172,
      "nummernblock": 9173,
      "ausschließen": 9174,
      "wies": 9175,
      "hoo": 9176,
      "perfor": 9177,
      "0000": 9178,
      "201a": 9179,
      "4930": 9180,
      "minist": 9181,
      "daraus": 9182,
      "pol": 9183,
      "webbrowser": 9184,
      "prüfe": 9185,
      "verwaltet": 9186,
      "stehende": 9187,
      "externes": 9188,
      "mobilfunknetze": 9189,
      "––––––––––––––––": 9190,
      "beliebigen": 9191,
      "longer": 9192,
      "ausdrücklich": 9193,
      ";|": 9194,
      "jün": 9195,
      "v7": 9196,
      "xq": 9197,
      "eisen": 9198,
      "schmitz": 9199,
      "ammer": 9200,
      "disk": 9201,
      "fe9": 9202,
      "touch": 9203,
      "vorbei": 9204,
      "zeitprofil": 9205,
      "selb": 9206,
      "bring": 9207,
      "157": 9208,
      "wahlwiederholung": 9209,
      "helmut": 9210,
      "zwang": 9211,
      "angene": 9212,
      "viron": 9213,
      "steuerberater": 9214,
      "verschiedener": 9215,
      "solch": 9216,
      "phonen": 9217,
      "telefonats": 9218,
      "gewerbeschein": 9219,
      "controller": 9220,
      "missbrauch": 9221,
      "tronics": 9222,
      "mietvertrag": 9223,
      "mevlüt": 9224,
      "darmstadt": 9225,
      "ear": 9226,
      "h6": 9227,
      "hw": 9228,
      "oly": 9229,
      "pq": 9230,
      "pie": 9231,
      "incl": 9232,
      "reason": 9233,
      "zuständige": 9234,
      "seem": 9235,
      "mithelfen": 9236,
      "komisch": 9237,
      "virtuell": 9238,
      "büros": 9239,
      "empfängers": 9240,
      "generieren": 9241,
      "bezeichneten": 9242,
      "feiertag": 9243,
      "berechtigungen": 9244,
      "201a386": 9245,
      "8c": 9246,
      "d785": 9247,
      "f1": 9248,
      "uh": 9249,
      "yy": 9250,
      "erkund": 9251,
      "schlo": 9252,
      "umzustellen": 9253,
      "mitch": 9254,
      "übergabe": 9255,
      "uth": 9256,
      "uting": 9257,
      "vorberei": 9258,
      "foo": 9259,
      "same": 9260,
      "124": 9261,
      "sprozesse": 9262,
      "wartezeit": 9263,
      "aktuelles": 9264,
      "used": 9265,
      "winkel": 9266,
      "january": 9267,
      "isabell": 9268,
      "kategorien": 9269,
      "weitergeleiteten": 9270,
      "hauptsitz": 9271,
      "unerlaubte": 9272,
      "bq": 9273,
      "mis": 9274,
      "xz": 9275,
      "anq": 9276,
      "dieter": 9277,
      "mitted": 9278,
      "hall": 9279,
      "ausgleichen": 9280,
      "tain": 9281,
      "accept": 9282,
      "entstandenen": 9283,
      "weiterführende": 9284,
      "netzes": 9285,
      "logging": 9286,
      "kontoinhaber": 9287,
      "gruss": 9288,
      "sowieso": 9289,
      "usern": 9290,
      "360": 9291,
      "oberen": 9292,
      "ordnungs": 9293,
      "path": 9294,
      "authentifizierungs": 9295,
      "beschleun": 9296,
      "kontinuier": 9297,
      "dv": 9298,
      "kw": 9299,
      "stant": 9300,
      "reden": 9301,
      "reach": 9302,
      "ters": 9303,
      "verla": 9304,
      "aufbauen": 9305,
      "mens": 9306,
      "stellungs": 9307,
      "hosp": 9308,
      "perman": 9309,
      "paz": 9310,
      "teammitglied": 9311,
      "these": 9312,
      "self": 9313,
      "festnetzrufnummer": 9314,
      "united": 9315,
      "tischtelefone": 9316,
      "generation": 9317,
      "funktionsübersicht": 9318,
      "gültige": 9319,
      "attached": 9320,
      "analysieren": 9321,
      "erhielt": 9322,
      "zögern": 9323,
      "uti": 9324,
      "wein": 9325,
      "xe": 9326,
[...]
